{
  "version": "1.0",
  "truncation": null,
  "padding": null,
  "added_tokens": [
    {
      "id": 0,
      "content": "<unk>",
      "single_word": false,
      "lstrip": false,
      "rstrip": false,
      "normalized": false,
      "special": true
    },
    {
      "id": 1,
      "content": "<s>",
      "single_word": false,
      "lstrip": false,
      "rstrip": false,
      "normalized": false,
      "special": true
    },
    {
      "id": 2,
      "content": "</s>",
      "single_word": false,
      "lstrip": false,
      "rstrip": false,
      "normalized": false,
      "special": true
    },
    {
      "id": 3,
      "content": "<pad>",
      "single_word": false,
      "lstrip": false,
      "rstrip": false,
      "normalized": false,
      "special": true
    },
    {
      "id": 4,
      "content": "<|image|>",
      "single_word": false,
      "lstrip": false,
      "rstrip": false,
      "normalized": false,
      "special": true
    },
    {
      "id": 5,
      "content": "<|/image|>",
      "single_word": false,
      "lstrip": false,
      "rstrip": false,
      "normalized": false,
      "special": true
    }
  ],
  "normalizer": {
    "type": "NFKC"
  },
  "pre_tokenizer": {
    "type": "ByteLevel",
    "add_prefix_space": true,
    "trim_offsets": true,
    "use_regex": false
  },
  "post_processor": null,
  "decoder": {
    "type": "ByteLevel",
    "add_prefix_space": true,
    "trim_offsets": true,
    "use_regex": true
  },
  "model": {
    "type": "BPE",
    "dropout": null,
    "unk_token": "<unk>",
    "continuing_subword_prefix": null,
    "end_of_word_suffix": null,
    "fuse_unk": false,
    "byte_fallback": false,
    "ignore_merges": false,
    "vocab": {
      "<unk>": 0,
      "<s>": 1,
      "</s>": 2,
      "<pad>": 3,
      "<|image|>": 4,
      "<|/image|>": 5,
      "!": 6,
      "\"": 7,
      "#": 8,
      "$": 9,
      "%": 10,
      "&": 11,
      "'": 12,
      "(": 13,
      ")": 14,
      "*": 15,
      "+": 16,
      ",": 17,
      "-": 18,
      ".": 19,
      "/": 20,
      "0": 21,
      "1": 22,
      "2": 23,
      "3": 24,
      "4": 25,
      "5": 26,
      "6": 27,
      "7": 28,
      "8": 29,
      "9": 30,
      ":": 31,
      ";": 32,
      "<": 33,
      "=": 34,
      ">": 35,
      "?": 36,
      "@": 37,
      "A": 38,
      "B": 39,
      "C": 40,
      "D": 41,
      "E": 42,
      "F": 43,
      "G": 44,
      "H": 45,
      "I": 46,
      "J": 47,
      "K": 48,
      "L": 49,
      "M": 50,
      "N": 51,
      "O": 52,
      "P": 53,
      "Q": 54,
      "R": 55,
      "S": 56,
      "T": 57,
      "U": 58,
      "V": 59,
      "W": 60,
      "X": 61,
      "Y": 62,
      "Z": 63,
      "[": 64,
      "\\": 65,
      "]": 66,
      "^": 67,
      "_": 68,
      "`": 69,
      "a": 70,
      "b": 71,
      "c": 72,
      "d": 73,
      "e": 74,
      "f": 75,
      "g": 76,
      "h": 77,
      "i": 78,
      "j": 79,
      "k": 80,
      "l": 81,
      "m": 82,
      "n": 83,
      "o": 84,
      "p": 85,
      "q": 86,
      "r": 87,
      "s": 88,
      "t": 89,
      "u": 90,
      "v": 91,
      "w": 92,
      "x": 93,
      "y": 94,
      "z": 95,
      "{": 96,
      "|": 97,
      "}": 98,
      "~": 99,
      "¡": 100,
      "¢": 101,
      "£": 102,
      "¤": 103,
      "¥": 104,
      "¦": 105,
      "§": 106,
      "¨": 107,
      "©": 108,
      "ª": 109,
      "«": 110,
      "¬": 111,
      "®": 112,
      "¯": 113,
      "°": 114,
      "±": 115,
      "²": 116,
      "³": 117,
      "´": 118,
      "µ": 119,
      "¶": 120,
      "·": 121,
      "¸": 122,
      "¹": 123,
      "º": 124,
      "»": 125,
      "¼": 126,
      "½": 127,
      "¾": 128,
      "¿": 129,
      "Â": 130,
      "Ã": 131,
      "Ä": 132,
      "Å": 133,
      "Æ": 134,
      "Ç": 135,
      "È": 136,
      "É": 137,
      "Ê": 138,
      "Ë": 139,
      "Ì": 140,
      "Í": 141,
      "Î": 142,
      "Ï": 143,
      "Ð": 144,
      "Ñ": 145,
      "Ò": 146,
      "Ó": 147,
      "Ô": 148,
      "Õ": 149,
      "Ö": 150,
      "×": 151,
      "Ø": 152,
      "Ù": 153,
      "Ú": 154,
      "Û": 155,
      "Ü": 156,
      "Ý": 157,
      "à": 158,
      "á": 159,
      "â": 160,
      "ã": 161,
      "ä": 162,
      "å": 163,
      "æ": 164,
      "ç": 165,
      "è": 166,
      "é": 167,
      "ê": 168,
      "ë": 169,
      "ì": 170,
      "í": 171,
      "ï": 172,
      "ð": 173,
      "Ċ": 174,
      "Ġ": 175,
      "Ģ": 176,
      "ģ": 177,
      "Ĥ": 178,
      "ĥ": 179,
      "Ħ": 180,
      "ħ": 181,
      "Ĩ": 182,
      "ĩ": 183,
      "Ī": 184,
      "ī": 185,
      "Ĭ": 186,
      "ĭ": 187,
      "Į": 188,
      "į": 189,
      "İ": 190,
      "ı": 191,
      "Ĳ": 192,
      "ĳ": 193,
      "Ĵ": 194,
      "ĵ": 195,
      "Ķ": 196,
      "ķ": 197,
      "ĸ": 198,
      "Ĺ": 199,
      "ĺ": 200,
      "Ļ": 201,
      "ļ": 202,
      "Ľ": 203,
      "ľ": 204,
      "Ŀ": 205,
      "ŀ": 206,
      "Ł": 207,
      "ł": 208,
      "Ń": 209,
      "eĠ": 210,
      "sĠ": 211,
      "th": 212,
      "dĠ": 213,
      "nĠ": 214,
      "er": 215,
      "tĠ": 216,
      "theĠ": 217,
      "in": 218,
      "an": 219,
      ",Ġ": 220,
      "yĠ": 221,
      "edĠ": 222,
      "or": 223,
      "ar": 224,
      "al": 225,
      "oĠ": 226,
      ".Ġ": 227,
      "re": 228,
      "fĠ": 229,
      "ti": 230,
      "on": 231,
      "en": 232,
      "erĠ": 233,
      "andĠ": 234,
      "gĠ": 235,
      "aĠ": 236,
      "ofĠ": 237,
      "onĠ": 238,
      "ingĠ": 239,
      "inĠ": 240,
      "ou": 241,
      "toĠ": 242,
      "asĠ": 243,
      "st": 244,
      "at": 245,
      "esĠ": 246,
      "ic": 247,
      "ro": 248,
      "mĠ": 249,
      "el": 250,
      "il": 251,
      "Ġ,Ġ": 252,
      "ac": 253,
      "it": 254,
      "isĠ": 255,
      "heĠ": 256,
      "atĠ": 257,
      "anĠ": 258,
      "alĠ": 259,
      "is": 260,
      "hĠ": 261,
      "Ġ=": 262,
      "\"Ġ": 263,
      "thĠ": 264,
      "for": 265,
      "@Ġ": 266,
      "as": 267,
      "ur": 268,
      "ec": 269,
      "es": 270,
      "om": 271,
      "wasĠ": 272,
      "am": 273,
      "ol": 274,
      "enĠ": 275,
      "ir": 276,
      "tionĠ": 277,
      "lyĠ": 278,
      "ow": 279,
      "si": 280,
      "ri": 281,
      "-@Ġ": 282,
      "@-@Ġ": 283,
      "TheĠ": 284,
      "wh": 285,
      "ofĠtheĠ": 286,
      "ad": 287,
      "wi": 288,
      "em": 289,
      "lĠ": 290,
      "ch": 291,
      "kĠ": 292,
      "un": 293,
      "'sĠ": 294,
      "pl": 295,
      "us": 296,
      "thatĠ": 297,
      "forĠ": 298,
      "di": 299,
      "ag": 300,
      ".Ċ": 301,
      "ev": 302,
      "ha": 303,
      "entĠ": 304,
      "byĠ": 305,
      "veĠ": 306,
      "ig": 307,
      "withĠ": 308,
      "et": 309,
      "Ġ=Ġ=": 310,
      "con": 311,
      "sĠ,Ġ": 312,
      "os": 313,
      "(Ġ": 314,
      "ent": 315,
      "le": 316,
      "ra": 317,
      "ereĠ": 318,
      "su": 319,
      "eĠ,Ġ": 320,
      "19": 321,
      ".ĠTheĠ": 322,
      "0Ġ": 323,
      "inĠtheĠ": 324,
      "li": 325,
      "op": 326,
      "pro": 327,
      "hisĠ": 328,
      "orĠ": 329,
      "leĠ": 330,
      "ov": 331,
      "be": 332,
      "oun": 333,
      "ear": 334,
      "ab": 335,
      "ersĠ": 336,
      "com": 337,
      "hi": 338,
      "ceĠ": 339,
      "bu": 340,
      "ap": 341,
      "the": 342,
      "ex": 343,
      "romĠ": 344,
      "tion": 345,
      "ul": 346,
      "ationĠ": 347,
      "itĠ": 348,
      "fromĠ": 349,
      "tedĠ": 350,
      ")Ġ": 351,
      "ep": 352,
      "ayĠ": 353,
      "oc": 354,
      "20": 355,
      "cl": 356,
      "terĠ": 357,
      "id": 358,
      "ew": 359,
      "sp": 360,
      "wereĠ": 361,
      "uc": 362,
      ".ĠI": 363,
      "toĠtheĠ": 364,
      "im": 365,
      "stĠ": 366,
      "therĠ": 367,
      "pĠ": 368,
      "our": 369,
      "tr": 370,
      "tic": 371,
      "qu": 372,
      "oo": 373,
      "tsĠ": 374,
      "ter": 375,
      "se": 376,
      "ea": 377,
      "per": 378,
      ".ĠA": 379,
      "ff": 380,
      "atedĠ": 381,
      "ateĠ": 382,
      "ay": 383,
      "pre": 384,
      "ing": 385,
      "ityĠ": 386,
      "sh": 387,
      "no": 388,
      "ain": 389,
      "icĠ": 390,
      "hadĠ": 391,
      "arĠ": 392,
      "ichĠ": 393,
      "igh": 394,
      "rec": 395,
      "edĠtheĠ": 396,
      "ldĠ": 397,
      "âĢ": 398,
      "um": 399,
      "ingĠtheĠ": 400,
      ",ĠandĠ": 401,
      "iv": 402,
      "oug": 403,
      "irĠ": 404,
      "dsĠ": 405,
      "edĠtoĠ": 406,
      "1Ġ": 407,
      "chĠ": 408,
      "whichĠ": 409,
      "eĠofĠ": 410,
      "ameĠ": 411,
      "ak": 412,
      "str": 413,
      "estĠ": 414,
      "St": 415,
      "berĠ": 416,
      "2Ġ": 417,
      "par": 418,
      "5Ġ": 419,
      "beĠ": 420,
      "ud": 421,
      "allyĠ": 422,
      "edĠbyĠ": 423,
      "areĠ": 424,
      "ed": 425,
      "outĠ": 426,
      "all": 427,
      ".ĠH": 428,
      "od": 429,
      "allĠ": 430,
      "soĠ": 431,
      "ation": 432,
      "fir": 433,
      "av": 434,
      ".ĠT": 435,
      "iesĠ": 436,
      "ongĠ": 437,
      "est": 438,
      "etĠ": 439,
      "oneĠ": 440,
      "tim": 441,
      "aryĠ": 442,
      "itsĠ": 443,
      "onĠtheĠ": 444,
      "man": 445,
      "3Ġ": 446,
      "por": 447,
      "wor": 448,
      "Ch": 449,
      "po": 450,
      "tur": 451,
      "ewĠ": 452,
      "bl": 453,
      "butĠ": 454,
      "att": 455,
      "4Ġ": 456,
      "notĠ": 457,
      "ouldĠ": 458,
      "ser": 459,
      "owĠ": 460,
      "sĠandĠ": 461,
      "elĠ": 462,
      "200": 463,
      "herĠ": 464,
      "fterĠ": 465,
      "ran": 466,
      "og": 467,
      "ot": 468,
      "6Ġ": 469,
      "derĠ": 470,
      "tw": 471,
      "ownĠ": 472,
      "ardĠ": 473,
      "we": 474,
      "sc": 475,
      "geĠ": 476,
      ";Ġ": 477,
      ".ĠInĠ": 478,
      "firstĠ": 479,
      "theirĠ": 480,
      "de": 481,
      "ĵĠ": 482,
      "âĢĵĠ": 483,
      "8Ġ": 484,
      "iĠ": 485,
      "ineĠ": 486,
      ",ĠtheĠ": 487,
      "dingĠ": 488,
      "edĠinĠ": 489,
      "7Ġ": 490,
      "oughĠ": 491,
      "alsoĠ": 492,
      "cont": 493,
      "ostĠ": 494,
      "forĠtheĠ": 495,
      "ĠTheĠ": 496,
      "astĠ": 497,
      "sĠofĠ": 498,
      "vi": 499,
      "oll": 500,
      "oundĠ": 501,
      "mentĠ": 502,
      "oreĠ": 503,
      "sid": 504,
      "otherĠ": 505,
      "00Ġ": 506,
      "idĠ": 507,
      "haveĠ": 508,
      "ut": 509,
      "ainĠ": 510,
      "Ġ=Ċ": 511,
      "andĠtheĠ": 512,
      "ionĠ": 513,
      "ill": 514,
      "fl": 515,
      "Ġ=Ġ=Ġ": 516,
      "fi": 517,
      "aw": 518,
      ".@Ġ": 519,
      "@.@Ġ": 520,
      "dis": 521,
      "esĠ,Ġ": 522,
      "twoĠ": 523,
      "erĠ,Ġ": 524,
      "Ġ=Ġ": 525,
      "bec": 526,
      "gr": 527,
      "shi": 528,
      "eĠtheĠ": 529,
      "stor": 530,
      "bo": 531,
      "ackĠ": 532,
      "whoĠ": 533,
      ":Ġ": 534,
      "duc": 535,
      "ver": 536,
      "beenĠ": 537,
      "ph": 538,
      "hasĠ": 539,
      "over": 540,
      "sec": 541,
      "end": 542,
      "iaĠ": 543,
      "elyĠ": 544,
      "ru": 545,
      ".ĠS": 546,
      "201": 547,
      "eyĠ": 548,
      "des": 549,
      "ageĠ": 550,
      "9Ġ": 551,
      "@,": 552,
      "@,@Ġ": 553,
      "tiveĠ": 554,
      "thisĠ": 555,
      "au": 556,
      "year": 557,
      "ob": 558,
      "ass": 559,
      "omeĠ": 560,
      "form": 561,
      "tingĠ": 562,
      "clud": 563,
      "ell": 564,
      "mil": 565,
      "atĠtheĠ": 566,
      "comm": 567,
      "IĠ": 568,
      "pr": 569,
      "enceĠ": 570,
      "18": 571,
      "emberĠ": 572,
      "ack": 573,
      "fin": 574,
      "cre": 575,
      "and": 576,
      "antĠ": 577,
      "theyĠ": 578,
      "ourĠ": 579,
      "ousĠ": 580,
      "'Ġ": 581,
      "withĠtheĠ": 582,
      "fromĠtheĠ": 583,
      "ightĠ": 584,
      "min": 585,
      "usĠ": 586,
      "ueĠ": 587,
      "Un": 588,
      "ish": 589,
      "Ġ,ĠandĠ": 590,
      "Mar": 591,
      "aterĠ": 592,
      "sionĠ": 593,
      "afterĠ": 594,
      "includ": 595,
      "In": 596,
      "landĠ": 597,
      "icalĠ": 598,
      ".ĠHeĠ": 599,
      "fe": 600,
      "adĠ": 601,
      "pe": 602,
      "rit": 603,
      "wouldĠ": 604,
      "res": 605,
      "ableĠ": 606,
      "yĠ,Ġ": 607,
      "ilĠ": 608,
      "ialĠ": 609,
      "sonĠ": 610,
      "asĠaĠ": 611,
      "seĠ": 612,
      "me": 613,
      "ellĠ": 614,
      "=Ġ=Ċ": 615,
      "overĠ": 616,
      "ast": 617,
      "ĠA": 618,
      "ianĠ": 619,
      "edĠaĠ": 620,
      "reeĠ": 621,
      "eg": 622,
      "Ġ=Ġ=Ġ=Ġ": 623,
      "entsĠ": 624,
      "pres": 625,
      ".ĠTh": 626,
      "eralĠ": 627,
      "ftĠ": 628,
      "essĠ": 629,
      "play": 630,
      "ren": 631,
      "cri": 632,
      "fil": 633,
      "Ġ,ĠtheĠ": 634,
      "Ġ@-@Ġ": 635,
      "manĠ": 636,
      "inter": 637,
      "char": 638,
      "rem": 639,
      "gu": 640,
      "adeĠ": 641,
      "iz": 642,
      "ernĠ": 643,
      "pos": 644,
      "enc": 645,
      "pu": 646,
      "mer": 647,
      "off": 648,
      "moreĠ": 649,
      "tyĠ": 650,
      ".ĠB": 651,
      ".ĠO": 652,
      "ess": 653,
      "spec": 654,
      "Ġ=Ġ=Ċ": 655,
      "iceĠ": 656,
      "anc": 657,
      "eseĠ": 658,
      "upĠ": 659,
      "ann": 660,
      ".Ġ\"Ġ": 661,
      "aceĠ": 662,
      "thatĠtheĠ": 663,
      "atesĠ": 664,
      "onsĠ": 665,
      "bet": 666,
      "anceĠ": 667,
      "ticĠ": 668,
      "keĠ": 669,
      "ustĠ": 670,
      "htĠ": 671,
      "xĠ": 672,
      "mostĠ": 673,
      "ondĠ": 674,
      "aĠ,Ġ": 675,
      "mar": 676,
      "kn": 677,
      "ileĠ": 678,
      "der": 679,
      "dec": 680,
      "timeĠ": 681,
      "Au": 682,
      "whenĠ": 683,
      "serv": 684,
      "dur": 685,
      "int": 686,
      "car": 687,
      "ach": 688,
      "ong": 689,
      "umĠ": 690,
      ".ĠItĠ": 691,
      "himĠ": 692,
      ".ĠW": 693,
      "itedĠ": 694,
      "iti": 695,
      "ksĠ": 696,
      "sheĠ": 697,
      ")Ġ,Ġ": 698,
      "iteĠ": 699,
      "ist": 700,
      "onlyĠ": 701,
      "asĠtheĠ": 702,
      "cent": 703,
      "aus": 704,
      "vid": 705,
      "tĠofĠ": 706,
      "lar": 707,
      "ishĠ": 708,
      "inĠ19": 709,
      "sur": 710,
      "reg": 711,
      "thr": 712,
      "An": 713,
      "thanĠ": 714,
      "oldĠ": 715,
      "sa": 716,
      "=Ġ=Ġ=Ċ": 717,
      "ationsĠ": 718,
      "co": 719,
      "ĠI": 720,
      "teĠ": 721,
      "weenĠ": 722,
      "Ar": 723,
      "ric": 724,
      "endĠ": 725,
      "tor": 726,
      "row": 727,
      "sev": 728,
      "cor": 729,
      "aboutĠ": 730,
      "En": 731,
      "mon": 732,
      "tra": 733,
      "asonĠ": 734,
      "Al": 735,
      "wayĠ": 736,
      "amp": 737,
      "sy": 738,
      "asedĠ": 739,
      "Th": 740,
      "pan": 741,
      "shipĠ": 742,
      "ansĠ": 743,
      "enti": 744,
      "istĠ": 745,
      "betweenĠ": 746,
      "atur": 747,
      "tionsĠ": 748,
      "oodĠ": 749,
      "rele": 750,
      "ang": 751,
      "up": 752,
      "pleĠ": 753,
      "tonĠ": 754,
      "amĠ": 755,
      "sel": 756,
      "to": 757,
      "te": 758,
      "of": 759,
      "rel": 760,
      "ookĠ": 761,
      "air": 762,
      "produc": 763,
      "num": 764,
      "illĠ": 765,
      "ollow": 766,
      "kingĠ": 767,
      "threeĠ": 768,
      "achĠ": 769,
      "if": 770,
      ".ĠM": 771,
      "ningĠ": 772,
      "AĠ": 773,
      "evel": 774,
      "inĠaĠ": 775,
      "intoĠ": 776,
      "tis": 777,
      "meric": 778,
      "nor": 779,
      "tiv": 780,
      "ationalĠ": 781,
      "gen": 782,
      "sub": 783,
      "ber": 784,
      "toĠbeĠ": 785,
      "rig": 786,
      ".ĠF": 787,
      "resĠ": 788,
      "\"Ġ,Ġ": 789,
      "otĠ": 790,
      "writ": 791,
      "alsĠ": 792,
      "ail": 793,
      "@,@Ġ0": 794,
      "Americ": 795,
      "newĠ": 796,
      "beg": 797,
      "Com": 798,
      ".ĠD": 799,
      "whereĠ": 800,
      "app": 801,
      "ind": 802,
      "edĠ,Ġ": 803,
      "eb": 804,
      "akeĠ": 805,
      "gameĠ": 806,
      "coun": 807,
      "ĠInĠ": 808,
      "ementĠ": 809,
      "oseĠ": 810,
      "Jo": 811,
      "ard": 812,
      "thoughĠ": 813,
      "aseĠ": 814,
      "tenĠ": 815,
      "hel": 816,
      "sig": 817,
      "atingĠ": 818,
      "ingsĠ": 819,
      "recor": 820,
      "ryĠ": 821,
      "fu": 822,
      "filmĠ": 823,
      "ub": 824,
      "ous": 825,
      "esĠandĠ": 826,
      "struc": 827,
      "seasonĠ": 828,
      "Par": 829,
      "199": 830,
      "mus": 831,
      "laterĠ": 832,
      "tĠ,Ġ": 833,
      "loc": 834,
      "tit": 835,
      "reĠ": 836,
      "SĠ": 837,
      "oy": 838,
      "riv": 839,
      "opĠ": 840,
      "buil": 841,
      "nedĠ": 842,
      "pp": 843,
      "inc": 844,
      "vis": 845,
      "sĠ,ĠandĠ": 846,
      "kedĠ": 847,
      "suchĠ": 848,
      "eng": 849,
      "ma": 850,
      "befor": 851,
      "byĠtheĠ": 852,
      "esĠofĠ": 853,
      "mo": 854,
      "cap": 855,
      "@,@Ġ000Ġ": 856,
      "pol": 857,
      "Nor": 858,
      "he": 859,
      "withĠaĠ": 860,
      "NewĠ": 861,
      "publ": 862,
      "outhĠ": 863,
      "eadĠ": 864,
      "albu": 865,
      "ste": 866,
      "Con": 867,
      "themĠ": 868,
      "owev": 869,
      "sl": 870,
      "ectedĠ": 871,
      "madeĠ": 872,
      "omĠ": 873,
      "eamĠ": 874,
      "follow": 875,
      "psĠ": 876,
      "mat": 877,
      "thenĠ": 878,
      "nam": 879,
      "Bri": 880,
      "isod": 881,
      "bleĠ": 882,
      "ros": 883,
      "compl": 884,
      "ingĠaĠ": 885,
      "whileĠ": 886,
      "ainstĠ": 887,
      "/Ġ": 888,
      "with": 889,
      "dayĠ": 890,
      "eaĠ": 891,
      "earĠ": 892,
      "star": 893,
      "ant": 894,
      "olĠ": 895,
      "throughĠ": 896,
      "episod": 897,
      "fac": 898,
      "mis": 899,
      "sup": 900,
      "secondĠ": 901,
      "cho": 902,
      "inv": 903,
      "againstĠ": 904,
      "lesĠ": 905,
      "manyĠ": 906,
      "edĠthatĠ": 907,
      "lin": 908,
      "wellĠ": 909,
      "charac": 910,
      "posi": 911,
      "someĠ": 912,
      "br": 913,
      "ari": 914,
      "canĠ": 915,
      "tri": 916,
      "songĠ": 917,
      "cur": 918,
      "albumĠ": 919,
      "gl": 920,
      "mp": 921,
      "arm": 922,
      "ilyĠ": 923,
      "becameĠ": 924,
      "CĠ": 925,
      "âĢĶ": 926,
      "call": 927,
      "mov": 928,
      "itĠwasĠ": 929,
      "deĠ": 930,
      "noĠ": 931,
      "fer": 932,
      "cc": 933,
      "thereĠ": 934,
      "earlyĠ": 935,
      "ectĠ": 936,
      "numberĠ": 937,
      "UnitedĠ": 938,
      "âĢĶĠ": 939,
      "inceĠ": 940,
      "sing": 941,
      ".ĠThisĠ": 942,
      "heĠwasĠ": 943,
      "tionĠofĠ": 944,
      "ĠS": 945,
      "beingĠ": 946,
      "seriesĠ": 947,
      "iver": 948,
      "gre": 949,
      "ne": 950,
      "bothĠ": 951,
      "edĠbyĠtheĠ": 952,
      "knownĠ": 953,
      "dep": 954,
      "poin": 955,
      "Joh": 956,
      "devel": 957,
      "workĠ": 958,
      "sist": 959,
      "lan": 960,
      "lionĠ": 961,
      "ardsĠ": 962,
      "olog": 963,
      "edĠinĠtheĠ": 964,
      "adi": 965,
      "eĠandĠ": 966,
      "isĠaĠ": 967,
      "direc": 968,
      "sul": 969,
      "bel": 970,
      "isionĠ": 971,
      "lo": 972,
      "ip": 973,
      "contin": 974,
      "ris": 975,
      "Le": 976,
      "succ": 977,
      "underĠ": 978,
      "peri": 979,
      "plac": 980,
      "aysĠ": 981,
      "fourĠ": 982,
      "eĠ,ĠandĠ": 983,
      "yĠofĠ": 984,
      "owerĠ": 985,
      "ualĠ": 986,
      "teamĠ": 987,
      "overn": 988,
      "orig": 989,
      "wĠ": 990,
      "Car": 991,
      "ion": 992,
      "sm": 993,
      "10Ġ": 994,
      "rop": 995,
      "ignĠ": 996,
      "yp": 997,
      "til": 998,
      "saidĠ": 999,
      "Wor": 1000,
      "eredĠ": 1001,
      "diff": 1002,
      "cer": 1003,
      "rece": 1004,
      "amesĠ": 1005,
      "col": 1006,
      "severalĠ": 1007,
      "high": 1008,
      "ef": 1009,
      "az": 1010,
      ".ĠAĠ": 1011,
      "beforeĠ": 1012,
      "uryĠ": 1013,
      "develop": 1014,
      "appear": 1015,
      "didĠ": 1016,
      "Ger": 1017,
      "bro": 1018,
      "yearsĠ": 1019,
      "tran": 1020,
      "couldĠ": 1021,
      "tersĠ": 1022,
      "AmericanĠ": 1023,
      "ound": 1024,
      "tishĠ": 1025,
      "uallyĠ": 1026,
      "out": 1027,
      "duringĠtheĠ": 1028,
      "anyĠ": 1029,
      "oughtĠ": 1030,
      "org": 1031,
      "sk": 1032,
      "ept": 1033,
      ".ĠR": 1034,
      "origin": 1035,
      "retur": 1036,
      "beganĠ": 1037,
      "ticalĠ": 1038,
      "selfĠ": 1039,
      "tilĠ": 1040,
      "ighĠ": 1041,
      "ĠB": 1042,
      "tureĠ": 1043,
      "Ju": 1044,
      "lif": 1045,
      "ationĠofĠ": 1046,
      "sol": 1047,
      "view": 1048,
      "ativeĠ": 1049,
      "go": 1050,
      ".ĠP": 1051,
      "acc": 1052,
      "17": 1053,
      "torĠ": 1054,
      "oweverĠ,Ġ": 1055,
      "offic": 1056,
      "wardĠ": 1057,
      "oci": 1058,
      ",ĠbutĠ": 1059,
      "edĠonĠ": 1060,
      "aleĠ": 1061,
      "aveĠ": 1062,
      "assĠ": 1063,
      "win": 1064,
      ".ĠOnĠ": 1065,
      "descri": 1066,
      "untilĠ": 1067,
      "194": 1068,
      "tak": 1069,
      "lineĠ": 1070,
      "wasĠtheĠ": 1071,
      "fam": 1072,
      "storyĠ": 1073,
      "eryĠ": 1074,
      "Sh": 1075,
      "neĠ": 1076,
      "dre": 1077,
      ".ĠL": 1078,
      "oper": 1079,
      "receiv": 1080,
      "tĠtheĠ": 1081,
      "ond": 1082,
      "Oc": 1083,
      "leg": 1084,
      "Ġ\"Ġ": 1085,
      "tlyĠ": 1086,
      "forc": 1087,
      "kĠ,Ġ": 1088,
      "pop": 1089,
      "bor": 1090,
      "ularĠ": 1091,
      "198": 1092,
      "sĠtheĠ": 1093,
      "yearĠ": 1094,
      "ath": 1095,
      "Cl": 1096,
      "grou": 1097,
      "suppor": 1098,
      "offĠ": 1099,
      "orsĠ": 1100,
      "1Ġ,Ġ": 1101,
      "ron": 1102,
      "nerĠ": 1103,
      "edĠforĠ": 1104,
      "millionĠ": 1105,
      "ten": 1106,
      "Wh": 1107,
      "backĠ": 1108,
      "emp": 1109,
      "everĠ": 1110,
      "edĠandĠ": 1111,
      "ĠM": 1112,
      "ortĠ": 1113,
      "ingĠtoĠ": 1114,
      "myĠ": 1115,
      "Col": 1116,
      "sign": 1117,
      "aĠf": 1118,
      "hadĠbeenĠ": 1119,
      ".ĠWh": 1120,
      "Gre": 1121,
      "eldĠ": 1122,
      "peo": 1123,
      "mod": 1124,
      "$Ġ": 1125,
      "BritishĠ": 1126,
      "theseĠ": 1127,
      "emb": 1128,
      "Wil": 1129,
      "mi": 1130,
      "sideĠ": 1131,
      "tain": 1132,
      "leyĠ": 1133,
      "stri": 1134,
      "foundĠ": 1135,
      "Jun": 1136,
      "uresĠ": 1137,
      "irdĠ": 1138,
      "pri": 1139,
      "includingĠ": 1140,
      "Ã©": 1141,
      "eptemberĠ": 1142,
      "remain": 1143,
      "ey": 1144,
      "abl": 1145,
      "continu": 1146,
      "tĠofĠtheĠ": 1147,
      "ĠandĠ": 1148,
      "mĠ)Ġ": 1149,
      "wasĠaĠ": 1150,
      "bre": 1151,
      "siveĠ": 1152,
      "requ": 1153,
      "Ġ)Ġ": 1154,
      "edĠwithĠ": 1155,
      "ingĠ,Ġ": 1156,
      "SeptemberĠ": 1157,
      "becaus": 1158,
      "longĠ": 1159,
      "20Ġ": 1160,
      "0Ġ,Ġ": 1161,
      "tookĠ": 1162,
      "Sc": 1163,
      "odĠ": 1164,
      "tionalĠ": 1165,
      "sameĠ": 1166,
      "fulĠ": 1167,
      "playĠ": 1168,
      "ali": 1169,
      "oryĠ": 1170,
      ".ĠAfterĠ": 1171,
      "likeĠ": 1172,
      "do": 1173,
      "ick": 1174,
      "aroundĠ": 1175,
      "resul": 1176,
      "WorldĠ": 1177,
      "ekĠ": 1178,
      "batt": 1179,
      "enn": 1180,
      "mayĠ": 1181,
      "govern": 1182,
      "formĠ": 1183,
      "UnitedĠSt": 1184,
      "ich": 1185,
      "eĠ,ĠtheĠ": 1186,
      "ĠO": 1187,
      "dr": 1188,
      "eachĠ": 1189,
      "197": 1190,
      "ieĠ": 1191,
      "2Ġ,Ġ": 1192,
      "196": 1193,
      "gustĠ": 1194,
      "5Ġ,Ġ": 1195,
      "esĠtoĠ": 1196,
      "Bl": 1197,
      "ign": 1198,
      "episodeĠ": 1199,
      "bur": 1200,
      "Austr": 1201,
      "ectionĠ": 1202,
      "met": 1203,
      "ens": 1204,
      "edĠasĠ": 1205,
      "ash": 1206,
      ",ĠwhichĠ": 1207,
      "downĠ": 1208,
      "Nov": 1209,
      "repor": 1210,
      "stateĠ": 1211,
      "ityĠofĠ": 1212,
      "50Ġ": 1213,
      "Jan": 1214,
      "ouĠ": 1215,
      "describ": 1216,
      "pass": 1217,
      "stemĠ": 1218,
      "4Ġ,Ġ": 1219,
      "compan": 1220,
      "alongĠ": 1221,
      "sĠtoĠ": 1222,
      "ther": 1223,
      "tedĠtoĠ": 1224,
      "tainĠ": 1225,
      "AugustĠ": 1226,
      "mak": 1227,
      "sĠinĠ": 1228,
      "aĠandĠ": 1229,
      "nationalĠ": 1230,
      "Fran": 1231,
      "bri": 1232,
      "vingĠ": 1233,
      "3Ġ,Ġ": 1234,
      "toberĠ": 1235,
      "jo": 1236,
      "OctoberĠ": 1237,
      "lead": 1238,
      "JohnĠ": 1239,
      "suchĠasĠ": 1240,
      "intoĠtheĠ": 1241,
      "ofĠaĠ": 1242,
      "isĠtheĠ": 1243,
      "eff": 1244,
      "haveĠbeenĠ": 1245,
      ".ĠE": 1246,
      "musicĠ": 1247,
      "sou": 1248,
      "tryĠ": 1249,
      "entlyĠ": 1250,
      "perĠ": 1251,
      "ech": 1252,
      "ĠD": 1253,
      "war": 1254,
      "def": 1255,
      "disc": 1256,
      "own": 1257,
      "Yor": 1258,
      "oneĠofĠtheĠ": 1259,
      "airĠ": 1260,
      "Har": 1261,
      "MayĠ": 1262,
      "ly": 1263,
      "meĠ": 1264,
      "atelyĠ": 1265,
      "30Ġ": 1266,
      "ven": 1267,
      "peopleĠ": 1268,
      "fiveĠ": 1269,
      "uchĠ": 1270,
      "For": 1271,
      "appro": 1272,
      "actĠ": 1273,
      "alĠ,Ġ": 1274,
      "maj": 1275,
      "sĠwereĠ": 1276,
      "sion": 1277,
      "ivers": 1278,
      "thernĠ": 1279,
      "sĠ,ĠtheĠ": 1280,
      "under": 1281,
      "Dec": 1282,
      "som": 1283,
      "contro": 1284,
      "ough": 1285,
      "eoĠ": 1286,
      "ledĠ": 1287,
      "dra": 1288,
      "af": 1289,
      "ureĠ": 1290,
      "Sp": 1291,
      "giv": 1292,
      "esĠinĠ": 1293,
      "resp": 1294,
      "uĠ": 1295,
      "Pro": 1296,
      "6Ġ,Ġ": 1297,
      "menĠ": 1298,
      "\"Ċ": 1299,
      "forĠaĠ": 1300,
      ".ĠC": 1301,
      "duringĠ": 1302,
      "gra": 1303,
      "ah": 1304,
      "complet": 1305,
      "ounc": 1306,
      "caus": 1307,
      "JulyĠ": 1308,
      "consid": 1309,
      "ismĠ": 1310,
      "vari": 1311,
      "bandĠ": 1312,
      "UnitedĠStatesĠ": 1313,
      "hal": 1314,
      "awĠ": 1315,
      "NovemberĠ": 1316,
      "Austral": 1317,
      "det": 1318,
      "partic": 1319,
      "extĠ": 1320,
      "Gu": 1321,
      "dam": 1322,
      "highĠ": 1323,
      "ful": 1324,
      "redĠ": 1325,
      "bi": 1326,
      ".ĠAl": 1327,
      "Can": 1328,
      ".ĠTheyĠ": 1329,
      "arlyĠ": 1330,
      "sinceĠ": 1331,
      "sequ": 1332,
      "run": 1333,
      "son": 1334,
      "..": 1335,
      "setĠ": 1336,
      "12Ġ": 1337,
      ".ĠN": 1338,
      "uaryĠ": 1339,
      "aĠ'sĠ": 1340,
      "Apr": 1341,
      "didĠnotĠ": 1342,
      "cul": 1343,
      "coll": 1344,
      "ishedĠ": 1345,
      "Li": 1346,
      "areaĠ": 1347,
      "open": 1348,
      "larg": 1349,
      "incre": 1350,
      "osĠ": 1351,
      "\"ĠandĠ": 1352,
      "provid": 1353,
      "du": 1354,
      "etsĠ": 1355,
      "whatĠ": 1356,
      "Pl": 1357,
      "aneĠ": 1358,
      "evenĠ": 1359,
      "tre": 1360,
      "toĠaĠ": 1361,
      "medi": 1362,
      "ireĠ": 1363,
      "erĠandĠ": 1364,
      "usedĠ": 1365,
      "Ge": 1366,
      "Ph": 1367,
      "15Ġ": 1368,
      "oĠ,Ġ": 1369,
      "ug": 1370,
      ".ĠInĠtheĠ": 1371,
      "bas": 1372,
      "nowĠ": 1373,
      "iseĠ": 1374,
      "udi": 1375,
      "scho": 1376,
      "Indi": 1377,
      "ĠF": 1378,
      "ditionĠ": 1379,
      "dueĠ": 1380,
      "differ": 1381,
      "willĠ": 1382,
      "cas": 1383,
      "hasĠbeenĠ": 1384,
      "releasedĠ": 1385,
      "fun": 1386,
      "leftĠ": 1387,
      "dem": 1388,
      "esĠtheĠ": 1389,
      "ouseĠ": 1390,
      "chil": 1391,
      "inst": 1392,
      "ickĠ": 1393,
      "Eu": 1394,
      "dea": 1395,
      "ifĠ": 1396,
      "adv": 1397,
      "Gr": 1398,
      "wro": 1399,
      "largeĠ": 1400,
      "lim": 1401,
      "Ġ'sĠ": 1402,
      "JuneĠ": 1403,
      "ogra": 1404,
      "expl": 1405,
      "DecemberĠ": 1406,
      "aug": 1407,
      "Ro": 1408,
      "muchĠ": 1409,
      "tiesĠ": 1410,
      "positionĠ": 1411,
      "cityĠ": 1412,
      "anotherĠ": 1413,
      "JanuaryĠ": 1414,
      "Char": 1415,
      "westĠ": 1416,
      ".Ġ\"Ċ": 1417,
      "cour": 1418,
      "gener": 1419,
      "showĠ": 1420,
      "sum": 1421,
      "omin": 1422,
      "cla": 1423,
      "placeĠ": 1424,
      "dedĠ": 1425,
      "cordingĠ": 1426,
      "esĠ(Ġ": 1427,
      "critic": 1428,
      "thirdĠ": 1429,
      "singleĠ": 1430,
      ",ĠaĠ": 1431,
      "systemĠ": 1432,
      "onĠaĠ": 1433,
      "vic": 1434,
      "veryĠ": 1435,
      "MarchĠ": 1436,
      "calledĠ": 1437,
      "itt": 1438,
      "ati": 1439,
      "governmentĠ": 1440,
      "[Ġ": 1441,
      "characterĠ": 1442,
      "Jap": 1443,
      "her": 1444,
      "comp": 1445,
      "insĠ": 1446,
      "finalĠ": 1447,
      "afterĠtheĠ": 1448,
      "AprilĠ": 1449,
      ".ĠĊ": 1450,
      "exp": 1451,
      "Qu": 1452,
      "equ": 1453,
      "previ": 1454,
      "ock": 1455,
      "speciesĠ": 1456,
      "NorthĠ": 1457,
      "asĠwellĠ": 1458,
      "ilityĠ": 1459,
      "del": 1460,
      "USĠ": 1461,
      "yingĠ": 1462,
      "yĠandĠ": 1463,
      "ersĠ,Ġ": 1464,
      "centuryĠ": 1465,
      "port": 1466,
      "doĠ": 1467,
      "%Ġ": 1468,
      "ific": 1469,
      "WarĠ": 1470,
      "]Ġ": 1471,
      "msĠ": 1472,
      "fur": 1473,
      "pur": 1474,
      "fieldĠ": 1475,
      "fa": 1476,
      "hor": 1477,
      "forman": 1478,
      "resid": 1479,
      "tal": 1480,
      "rev": 1481,
      ")ĠandĠ": 1482,
      "esp": 1483,
      "dgeĠ": 1484,
      "prot": 1485,
      "justĠ": 1486,
      "esĠwereĠ": 1487,
      "erĠ'sĠ": 1488,
      "basedĠ": 1489,
      "Fl": 1490,
      ",ĠandĠtheĠ": 1491,
      "atureĠ": 1492,
      "9Ġ,Ġ": 1493,
      "ys": 1494,
      "organ": 1495,
      "agueĠ": 1496,
      "Bar": 1497,
      "tillĠ": 1498,
      "DĠ": 1499,
      "beli": 1500,
      "eerĠ": 1501,
      "flu": 1502,
      "ectsĠ": 1503,
      "erg": 1504,
      "issu": 1505,
      "YorkĠ": 1506,
      ".ĠSheĠ": 1507,
      "efĠ": 1508,
      "IIĠ": 1509,
      "195": 1510,
      "eav": 1511,
      "7Ġ,Ġ": 1512,
      "attemp": 1513,
      "worldĠ": 1514,
      "fic": 1515,
      "16": 1516,
      "groupĠ": 1517,
      "rightĠ": 1518,
      "Eng": 1519,
      "zĠ": 1520,
      "cu": 1521,
      "Gen": 1522,
      "groundĠ": 1523,
      "8Ġ,Ġ": 1524,
      "ballĠ": 1525,
      "scor": 1526,
      "followingĠ": 1527,
      "elev": 1528,
      "ord": 1529,
      "pi": 1530,
      "lessĠ": 1531,
      "lifeĠ": 1532,
      "oonĠ": 1533,
      "cra": 1534,
      "eanĠ": 1535,
      "overĠtheĠ": 1536,
      "193": 1537,
      "releas": 1538,
      "10": 1539,
      "asĠ\"Ġ": 1540,
      "recordĠ": 1541,
      "indĠ": 1542,
      "11Ġ": 1543,
      "toĠre": 1544,
      "chang": 1545,
      "mainĠ": 1546,
      "thingĠ": 1547,
      "stit": 1548,
      "Cor": 1549,
      "can": 1550,
      "show": 1551,
      "antsĠ": 1552,
      "la": 1553,
      "oĠ@-@Ġ": 1554,
      "useĠ": 1555,
      "Mc": 1556,
      "allow": 1557,
      "SouthĠ": 1558,
      "thĠ,Ġ": 1559,
      "Bo": 1560,
      "aff": 1561,
      "stillĠ": 1562,
      "dist": 1563,
      "performan": 1564,
      "ebru": 1565,
      "nextĠ": 1566,
      "stud": 1567,
      "etherĠ": 1568,
      "construc": 1569,
      "ext": 1570,
      "heldĠ": 1571,
      "bĠ": 1572,
      "scen": 1573,
      "ebruaryĠ": 1574,
      "Mus": 1575,
      "popul": 1576,
      "outeĠ": 1577,
      "Ġ=Ġ=Ġ=Ċ": 1578,
      "familyĠ": 1579,
      ",Ġ\"Ġ": 1580,
      "becauseĠ": 1581,
      "bestĠ": 1582,
      "edĠhisĠ": 1583,
      "builtĠ": 1584,
      "lastĠ": 1585,
      "'tĠ": 1586,
      "Ac": 1587,
      "rais": 1588,
      "some": 1589,
      "ockĠ": 1590,
      "FebruaryĠ": 1591,
      "Mon": 1592,
      "Di": 1593,
      "main": 1594,
      "mor": 1595,
      ".ĠHoweverĠ,Ġ": 1596,
      "imĠ": 1597,
      "iveĠ": 1598,
      "lateĠ": 1599,
      "establ": 1600,
      "althoughĠ": 1601,
      "ropicalĠ": 1602,
      "neyĠ": 1603,
      "easĠ": 1604,
      "originalĠ": 1605,
      "ouslyĠ": 1606,
      "nameĠ": 1607,
      "\"Ġ.Ċ": 1608,
      "them": 1609,
      "nearĠ": 1610,
      "warĠ": 1611,
      "prov": 1612,
      "itiesĠ": 1613,
      "gam": 1614,
      "ableĠtoĠ": 1615,
      "tro": 1616,
      "ĠH": 1617,
      "Ma": 1618,
      "videoĠ": 1619,
      "GermanĠ": 1620,
      "Fren": 1621,
      "mag": 1622,
      "fri": 1623,
      "cep": 1624,
      "townĠ": 1625,
      "wat": 1626,
      "ingĠandĠ": 1627,
      "ationĠ,Ġ": 1628,
      "wom": 1629,
      "25Ġ": 1630,
      "olv": 1631,
      "reach": 1632,
      "initi": 1633,
      "poli": 1634,
      "read": 1635,
      "gg": 1636,
      "majorĠ": 1637,
      "wouldĠbeĠ": 1638,
      "kill": 1639,
      "Man": 1640,
      "present": 1641,
      "success": 1642,
      "onĠ,Ġ": 1643,
      "eal": 1644,
      "againĠ": 1645,
      "tivelyĠ": 1646,
      "auth": 1647,
      "ĠT": 1648,
      "homeĠ": 1649,
      "hum": 1650,
      "NationalĠ": 1651,
      "ett": 1652,
      "endedĠ": 1653,
      "yl": 1654,
      "Ad": 1655,
      "14Ġ": 1656,
      "Per": 1657,
      "numberĠofĠ": 1658,
      "simil": 1659,
      "inn": 1660,
      "18Ġ": 1661,
      "fordĠ": 1662,
      "versionĠ": 1663,
      "camp": 1664,
      "shipsĠ": 1665,
      "waterĠ": 1666,
      "dro": 1667,
      "sen": 1668,
      "proc": 1669,
      "inaĠ": 1670,
      "smallĠ": 1671,
      "itaryĠ": 1672,
      "lat": 1673,
      "respon": 1674,
      ".ĠItĠwasĠ": 1675,
      "rac": 1676,
      "northĠ": 1677,
      "wroteĠ": 1678,
      "clos": 1679,
      "oftenĠ": 1680,
      "thatĠheĠ": 1681,
      "ok": 1682,
      "NewĠYorkĠ": 1683,
      "formerĠ": 1684,
      "dg": 1685,
      "16Ġ": 1686,
      "sixĠ": 1687,
      "ithĠ": 1688,
      "embersĠ": 1689,
      "pris": 1690,
      "ofĠhisĠ": 1691,
      "Re": 1692,
      "halfĠ": 1693,
      "oveĠ": 1694,
      "stat": 1695,
      "stormĠ": 1696,
      "inĠhisĠ": 1697,
      "13Ġ": 1698,
      "hy": 1699,
      "histor": 1700,
      "utionĠ": 1701,
      "sch": 1702,
      "roy": 1703,
      "FrenchĠ": 1704,
      "possi": 1705,
      "design": 1706,
      "actionĠ": 1707,
      "thoseĠ": 1708,
      "cameĠ": 1709,
      "iousĠ": 1710,
      "hol": 1711,
      "andsĠ": 1712,
      "Willi": 1713,
      "denĠ": 1714,
      "manag": 1715,
      ".ĠAsĠ": 1716,
      "itĠisĠ": 1717,
      "typ": 1718,
      ":Ġ\"Ġ": 1719,
      "100Ġ": 1720,
      "sĠ.Ċ": 1721,
      "inĠ200": 1722,
      "ersĠandĠ": 1723,
      "ret": 1724,
      "elec": 1725,
      "pit": 1726,
      "receivedĠ": 1727,
      "rang": 1728,
      "timesĠ": 1729,
      "esternĠ": 1730,
      "believ": 1731,
      "inĠ18": 1732,
      "bar": 1733,
      "EnglandĠ": 1734,
      "tot": 1735,
      "roleĠ": 1736,
      "oot": 1737,
      "anti": 1738,
      "40Ġ": 1739,
      "perform": 1740,
      "makeĠ": 1741,
      ";ĠtheĠ": 1742,
      "lik": 1743,
      "tĠandĠ": 1744,
      "Coun": 1745,
      "ograph": 1746,
      "spir": 1747,
      "Univers": 1748,
      "Engl": 1749,
      "ik": 1750,
      "headĠ": 1751,
      "publicĠ": 1752,
      "commun": 1753,
      "viewĠ": 1754,
      "sit": 1755,
      "Rob": 1756,
      "El": 1757,
      "ke": 1758,
      "youĠ": 1759,
      "club": 1760,
      "ementsĠ": 1761,
      "wentĠ": 1762,
      "oneĠofĠ": 1763,
      "arch": 1764,
      "inf": 1765,
      "vo": 1766,
      "claim": 1767,
      "divid": 1768,
      ".S": 1769,
      "Su": 1770,
      "localĠ": 1771,
      "ingtonĠ": 1772,
      "song": 1773,
      "tow": 1774,
      "membersĠ": 1775,
      "wee": 1776,
      "erc": 1777,
      "mĠ(Ġ": 1778,
      ".ĠDur": 1779,
      ".ĠHisĠ": 1780,
      "attack": 1781,
      "southĠ": 1782,
      "craftĠ": 1783,
      "Inter": 1784,
      "new": 1785,
      "namedĠ": 1786,
      "cordingĠtoĠ": 1787,
      "head": 1788,
      "angeĠ": 1789,
      "soci": 1790,
      "Co": 1791,
      "withoutĠ": 1792,
      "periodĠ": 1793,
      "orderĠ": 1794,
      "gamesĠ": 1795,
      "anim": 1796,
      "writtenĠ": 1797,
      "differentĠ": 1798,
      "Pr": 1799,
      "Riv": 1800,
      "pat": 1801,
      "quar": 1802,
      "back": 1803,
      "studi": 1804,
      "Ser": 1805,
      "powerĠ": 1806,
      "alityĠ": 1807,
      "uteĠ": 1808,
      "weĠ": 1809,
      "rest": 1810,
      "refer": 1811,
      "sugg": 1812,
      "ressĠ": 1813,
      "influ": 1814,
      "anĠ,Ġ": 1815,
      "let": 1816,
      "amongĠ": 1817,
      "tĠtoĠ": 1818,
      "odyĠ": 1819,
      "los": 1820,
      "epĠ": 1821,
      "aĠ\"Ġ": 1822,
      "list": 1823,
      "Or": 1824,
      "him": 1825,
      "dest": 1826,
      "roadĠ": 1827,
      "ittleĠ": 1828,
      "War": 1829,
      "jectĠ": 1830,
      "Batt": 1831,
      "17Ġ": 1832,
      "defe": 1833,
      "tem": 1834,
      "ĠOnĠ": 1835,
      "ingĠofĠ": 1836,
      "fron": 1837,
      "epar": 1838,
      "whil": 1839,
      "eastĠ": 1840,
      "andĠaĠ": 1841,
      "rownĠ": 1842,
      "trackĠ": 1843,
      "Cent": 1844,
      ".ĠWhenĠ": 1845,
      "15": 1846,
      "partĠofĠtheĠ": 1847,
      "entalĠ": 1848,
      "roc": 1849,
      "liv": 1850,
      "person": 1851,
      "Rec": 1852,
      "hamĠ": 1853,
      "U.S": 1854,
      "topĠ": 1855,
      "event": 1856,
      "fiedĠ": 1857,
      "sedĠ": 1858,
      "Lond": 1859,
      "elsĠ": 1860,
      "reetĠ": 1861,
      "1Ġ@.@Ġ": 1862,
      "thersĠ": 1863,
      "matchĠ": 1864,
      "exam": 1865,
      "akĠ": 1866,
      "givenĠ": 1867,
      "betweenĠtheĠ": 1868,
      "tedĠbyĠ": 1869,
      "Wal": 1870,
      "decid": 1871,
      "tedĠtheĠ": 1872,
      "join": 1873,
      "comb": 1874,
      "thatĠ\"Ġ": 1875,
      "iumĠ": 1876,
      "furtherĠ": 1877,
      "amm": 1878,
      "gaveĠ": 1879,
      "EnglishĠ": 1880,
      "announc": 1881,
      "ubl": 1882,
      "featur": 1883,
      "esĠ.Ċ": 1884,
      "cop": 1885,
      "deathĠ": 1886,
      "onom": 1887,
      "val": 1888,
      ".ĠG": 1889,
      "onĠ@-@Ġ": 1890,
      "heav": 1891,
      "iallyĠ": 1892,
      "productionĠ": 1893,
      "Is": 1894,
      "ta": 1895,
      "izedĠ": 1896,
      "contr": 1897,
      "drenĠ": 1898,
      "ni": 1899,
      "ationĠofĠtheĠ": 1900,
      "playerĠ": 1901,
      "0sĠ": 1902,
      "ampion": 1903,
      "review": 1904,
      "eh": 1905,
      "CityĠ": 1906,
      "leadĠ": 1907,
      "ofĠS": 1908,
      "ageĠofĠ": 1909,
      "ref": 1910,
      "Pol": 1911,
      "onyĠ": 1912,
      "As": 1913,
      "statedĠ": 1914,
      "stric": 1915,
      "daysĠ": 1916,
      "Tim": 1917,
      "land": 1918,
      "Af": 1919,
      "sionsĠ": 1920,
      "imp": 1921,
      "takeĠ": 1922,
      "castĠ": 1923,
      "ralĠ": 1924,
      "bookĠ": 1925,
      "cros": 1926,
      "ili": 1927,
      "trans": 1928,
      "elevisionĠ": 1929,
      "mul": 1930,
      "hadĠaĠ": 1931,
      "buildingĠ": 1932,
      "fatherĠ": 1933,
      "atorĠ": 1934,
      "ort": 1935,
      "urric": 1936,
      "youn": 1937,
      "esĠofĠtheĠ": 1938,
      "Min": 1939,
      "xim": 1940,
      "...Ġ": 1941,
      "lostĠ": 1942,
      "Ed": 1943,
      "gun": 1944,
      ".ĠByĠ": 1945,
      ".ĠK": 1946,
      "nsĠ": 1947,
      "Div": 1948,
      "schoolĠ": 1949,
      "cr": 1950,
      "sentĠ": 1951,
      "agre": 1952,
      "kerĠ": 1953,
      "getĠ": 1954,
      "Dav": 1955,
      "ablyĠ": 1956,
      "sal": 1957,
      "cy": 1958,
      "inĠwhichĠ": 1959,
      "icallyĠ": 1960,
      "RĠ": 1961,
      "arti": 1962,
      "edĠatĠ": 1963,
      "awayĠ": 1964,
      "replac": 1965,
      "careerĠ": 1966,
      "month": 1967,
      "oughoutĠ": 1968,
      "24Ġ": 1969,
      "suff": 1970,
      "neverĠ": 1971,
      "similarĠ": 1972,
      "Ex": 1973,
      "boardĠ": 1974,
      "urchĠ": 1975,
      "edĠtoĠtheĠ": 1976,
      "throughĠtheĠ": 1977,
      "ofĠM": 1978,
      "ship": 1979,
      "ionsĠ": 1980,
      "Be": 1981,
      "WestĠ": 1982,
      "sw": 1983,
      "hear": 1984,
      "grad": 1985,
      "tionĠofĠtheĠ": 1986,
      "thĠcenturyĠ": 1987,
      "yleĠ": 1988,
      "becom": 1989,
      ")Ċ": 1990,
      "militaryĠ": 1991,
      "becomeĠ": 1992,
      "Rom": 1993,
      "aver": 1994,
      "Comm": 1995,
      "entialĠ": 1996,
      "himselfĠ": 1997,
      "runĠ": 1998,
      "ensĠ": 1999,
      "import": 2000,
      "cle": 2001,
      "amsĠ": 2002,
      "howĠ": 2003,
      "har": 2004,
      "merĠ": 2005,
      "Canad": 2006,
      "arriv": 2007,
      "presentĠ": 2008,
      "aircraftĠ": 2009,
      "ribu": 2010,
      "developmentĠ": 2011,
      "nec": 2012,
      "forceĠ": 2013,
      "mark": 2014,
      "nightĠ": 2015,
      "ideĠ": 2016,
      "lingĠ": 2017,
      "VĠ": 2018,
      "intro": 2019,
      "carri": 2020,
      "edĠthatĠtheĠ": 2021,
      "At": 2022,
      "attackĠ": 2023,
      "companyĠ": 2024,
      "consider": 2025,
      "ronĠ": 2026,
      "fel": 2027,
      "edĠfromĠ": 2028,
      "winĠ": 2029,
      "acros": 2030,
      "fail": 2031,
      "esĠthatĠ": 2032,
      "add": 2033,
      "exĠ": 2034,
      "bus": 2035,
      "Rus": 2036,
      "22Ġ": 2037,
      ",ĠwhoĠ": 2038,
      "underĠtheĠ": 2039,
      "not": 2040,
      "edĠtoĠbeĠ": 2041,
      "omb": 2042,
      "curren": 2043,
      "21Ġ": 2044,
      "men": 2045,
      "havingĠ": 2046,
      "contain": 2047,
      "gar": 2048,
      "wea": 2049,
      "includedĠ": 2050,
      "Scot": 2051,
      "moreĠthanĠ": 2052,
      "wasĠnotĠ": 2053,
      "ploy": 2054,
      "asĠwellĠasĠ": 2055,
      "childrenĠ": 2056,
      "tropicalĠ": 2057,
      "fre": 2058,
      "lev": 2059,
      "spe": 2060,
      "endingĠ": 2061,
      "aur": 2062,
      "act": 2063,
      "canĠbeĠ": 2064,
      "cat": 2065,
      "dueĠtoĠ": 2066,
      "thre": 2067,
      "13": 2068,
      "GeneralĠ": 2069,
      "involv": 2070,
      "theyĠwereĠ": 2071,
      "aturesĠ": 2072,
      "sesĠ": 2073,
      "domĠ": 2074,
      "squ": 2075,
      "prof": 2076,
      ".ĠThereĠ": 2077,
      "sci": 2078,
      "hom": 2079,
      "eas": 2080,
      "partĠofĠ": 2081,
      "lightĠ": 2082,
      "alĠofĠ": 2083,
      "Rep": 2084,
      "previousĠ": 2085,
      "changeĠ": 2086,
      "tig": 2087,
      "aneseĠ": 2088,
      "emsĠ": 2089,
      "signific": 2090,
      ".ĠTheseĠ": 2091,
      "singĠ": 2092,
      "concer": 2093,
      "StateĠ": 2094,
      "campa": 2095,
      "ologyĠ": 2096,
      "LondonĠ": 2097,
      "iaĠ,Ġ": 2098,
      "outĠofĠ": 2099,
      "takenĠ": 2100,
      "Sy": 2101,
      "ogetherĠ": 2102,
      "vir": 2103,
      "eĠ,ĠbutĠ": 2104,
      "endsĠ": 2105,
      ".ĠJ": 2106,
      "againstĠtheĠ": 2107,
      "ertĠ": 2108,
      "bit": 2109,
      "Her": 2110,
      "ĠL": 2111,
      "itherĠ": 2112,
      "consist": 2113,
      "Sec": 2114,
      "Hi": 2115,
      "anaĠ": 2116,
      "fav": 2117,
      "Mic": 2118,
      "rol": 2119,
      "fle": 2120,
      "lowĠ": 2121,
      "pow": 2122,
      "whichĠwasĠ": 2123,
      "sĠofĠtheĠ": 2124,
      "shortĠ": 2125,
      "seenĠ": 2126,
      "houseĠ": 2127,
      "orĠ,Ġ": 2128,
      "ankĠ": 2129,
      "esĠ.ĠTheĠ": 2130,
      "kmĠ": 2131,
      "ank": 2132,
      "cir": 2133,
      "den": 2134,
      "ĠC": 2135,
      "controlĠ": 2136,
      "goodĠ": 2137,
      "boo": 2138,
      "eightĠ": 2139,
      "vol": 2140,
      "work": 2141,
      "angĠ": 2142,
      "areasĠ": 2143,
      "createdĠ": 2144,
      "train": 2145,
      "icul": 2146,
      "RiverĠ": 2147,
      "occur": 2148,
      "televisionĠ": 2149,
      ",ĠheĠ": 2150,
      "goĠ": 2151,
      "introduc": 2152,
      "historyĠ": 2153,
      "compar": 2154,
      "howeverĠ,Ġ": 2155,
      "ringĠ": 2156,
      "waysĠ": 2157,
      "ĻĠ": 2158,
      "artĠ": 2159,
      "returnĠ": 2160,
      "urricaneĠ": 2161,
      "performanceĠ": 2162,
      "countryĠ": 2163,
      "idd": 2164,
      "trav": 2165,
      "DivisionĠ": 2166,
      "marri": 2167,
      "edĠ\"Ġ": 2168,
      "Ang": 2169,
      "experi": 2170,
      "four": 2171,
      "ever": 2172,
      "23Ġ": 2173,
      "opp": 2174,
      "scri": 2175,
      "onn": 2176,
      ".ĠAc": 2177,
      "med": 2178,
      "shouldĠ": 2179,
      "190": 2180,
      "vill": 2181,
      "oundsĠ": 2182,
      "surv": 2183,
      "toryĠ": 2184,
      "titleĠ": 2185,
      "atĠaĠ": 2186,
      "Tr": 2187,
      "intoĠaĠ": 2188,
      "No": 2189,
      "aĠ(Ġ": 2190,
      "orgeĠ": 2191,
      "restĠ": 2192,
      "LĠ": 2193,
      ".ĠAlthoughĠ": 2194,
      "60Ġ": 2195,
      "ern": 2196,
      "suggest": 2197,
      ".ĠHeĠwasĠ": 2198,
      "Roy": 2199,
      "oweverĠ": 2200,
      "greatĠ": 2201,
      "wan": 2202,
      "verĠ": 2203,
      "rationĠ": 2204,
      "serviceĠ": 2205,
      "releaseĠ": 2206,
      "sĠ.ĠTheĠ": 2207,
      "politicalĠ": 2208,
      "pea": 2209,
      "tech": 2210,
      "missionĠ": 2211,
      "nov": 2212,
      "designĠ": 2213,
      "tour": 2214,
      "2010Ġ": 2215,
      "JapaneseĠ": 2216,
      "etyĠ": 2217,
      "sĠ,ĠbutĠ": 2218,
      "esĠ,ĠandĠ": 2219,
      "centĠ": 2220,
      "inj": 2221,
      "hon": 2222,
      "tĠ'sĠ": 2223,
      "ost": 2224,
      "tinĠ": 2225,
      "ĠP": 2226,
      "âĢĻĠ": 2227,
      "prob": 2228,
      "augh": 2229,
      "rist": 2230,
      "cast": 2231,
      "Mor": 2232,
      "eringĠ": 2233,
      "enĠ,Ġ": 2234,
      "fireĠ": 2235,
      "doc": 2236,
      "Nav": 2237,
      "playedĠ": 2238,
      "woodĠ": 2239,
      "pointĠ": 2240,
      "faceĠ": 2241,
      "throughoutĠ": 2242,
      "StreetĠ": 2243,
      "shar": 2244,
      "variousĠ": 2245,
      "iorĠ": 2246,
      "27Ġ": 2247,
      "comeĠ": 2248,
      "Reg": 2249,
      "28Ġ": 2250,
      "includeĠ": 2251,
      "WilliamĠ": 2252,
      "KingĠ": 2253,
      "radi": 2254,
      "increas": 2255,
      "theĠfirstĠ": 2256,
      "ood": 2257,
      "ici": 2258,
      "gran": 2259,
      "lerĠ": 2260,
      "siteĠ": 2261,
      "togetherĠ": 2262,
      "iter": 2263,
      "littleĠ": 2264,
      "LeagueĠ": 2265,
      "audi": 2266,
      "ure": 2267,
      "esĠareĠ": 2268,
      "charactersĠ": 2269,
      "sevenĠ": 2270,
      "whenĠtheĠ": 2271,
      "earli": 2272,
      "RoadĠ": 2273,
      "publish": 2274,
      "strongĠ": 2275,
      "abilityĠ": 2276,
      "comman": 2277,
      "wonĠ": 2278,
      "peti": 2279,
      "edĠbyĠaĠ": 2280,
      "hous": 2281,
      "tar": 2282,
      "thoughtĠ": 2283,
      "asĠanĠ": 2284,
      "ularlyĠ": 2285,
      ".ĠForĠ": 2286,
      "zeĠ": 2287,
      "tooĠ": 2288,
      "GeorgeĠ": 2289,
      "orityĠ": 2290,
      ":Ċ": 2291,
      "wardsĠ": 2292,
      "New": 2293,
      "propos": 2294,
      "inĠS": 2295,
      "esĠinĠtheĠ": 2296,
      "usedĠtoĠ": 2297,
      "chĠ,Ġ": 2298,
      "bir": 2299,
      "feltĠ": 2300,
      "reportedĠ": 2301,
      "@.@Ġ5Ġ": 2302,
      "Vi": 2303,
      "minist": 2304,
      "track": 2305,
      "earchĠ": 2306,
      "AustralianĠ": 2307,
      "Pet": 2308,
      "tsĠofĠ": 2309,
      "makingĠ": 2310,
      "ahĠ": 2311,
      "Br": 2312,
      "icsĠ": 2313,
      "Cap": 2314,
      "26Ġ": 2315,
      "erĠofĠ": 2316,
      "eventuallyĠ": 2317,
      "grow": 2318,
      "andĠwasĠ": 2319,
      "ĠR": 2320,
      "memberĠ": 2321,
      "sha": 2322,
      "miĠ": 2323,
      "Afric": 2324,
      "sil": 2325,
      "endĠofĠtheĠ": 2326,
      "Bi": 2327,
      "Ġ(Ġ": 2328,
      "timeĠ,Ġ": 2329,
      "JamesĠ": 2330,
      "ĠW": 2331,
      "1Ġ@,@Ġ": 2332,
      "2011Ġ": 2333,
      "tradi": 2334,
      "film": 2335,
      "notedĠ": 2336,
      "long": 2337,
      "tsĠ,Ġ": 2338,
      "ingĠinĠ": 2339,
      "atsĠ": 2340,
      ".ĠAtĠ": 2341,
      "iĠ,Ġ": 2342,
      "eĠ@-@Ġ": 2343,
      "liveĠ": 2344,
      "mentsĠ": 2345,
      "bornĠ": 2346,
      ")Ġ.Ċ": 2347,
      "insteadĠ": 2348,
      "emĠ": 2349,
      "aboutĠtheĠ": 2350,
      "commonĠ": 2351,
      "14": 2352,
      "locatedĠ": 2353,
      "feetĠ": 2354,
      "US": 2355,
      "usingĠ": 2356,
      "queĠ": 2357,
      "soldĠ": 2358,
      "ingĠthatĠ": 2359,
      "utĠ": 2360,
      "mem": 2361,
      "beforeĠtheĠ": 2362,
      "weekĠ": 2363,
      "ArmyĠ": 2364,
      "bodyĠ": 2365,
      "ensiveĠ": 2366,
      "lab": 2367,
      "andĠS": 2368,
      "voc": 2369,
      "inĠ199": 2370,
      "identi": 2371,
      "inkĠ": 2372,
      "represent": 2373,
      "sawĠ": 2374,
      "OĠ": 2375,
      "sianĠ": 2376,
      "hindĠ": 2377,
      "respec": 2378,
      "ationĠandĠ": 2379,
      "leav": 2380,
      "jec": 2381,
      "hun": 2382,
      "italĠ": 2383,
      "Ne": 2384,
      "Hen": 2385,
      "womenĠ": 2386,
      "moun": 2387,
      "inningĠ": 2388,
      "AustraliaĠ": 2389,
      "fem": 2390,
      "indu": 2391,
      "destroy": 2392,
      "aj": 2393,
      "compos": 2394,
      "ingdomĠ": 2395,
      "estim": 2396,
      "onceĠ": 2397,
      "importantĠ": 2398,
      "reĠ@-@Ġ": 2399,
      "ement": 2400,
      "19Ġ": 2401,
      "=Ċ": 2402,
      "cover": 2403,
      "prais": 2404,
      "Bro": 2405,
      "styleĠ": 2406,
      "encyĠ": 2407,
      "yn": 2408,
      "ticsĠ": 2409,
      "playersĠ": 2410,
      "presid": 2411,
      "sett": 2412,
      "Ã¡": 2413,
      "rep": 2414,
      "partĠ": 2415,
      "establish": 2416,
      "2008Ġ": 2417,
      "ootballĠ": 2418,
      "forĠhisĠ": 2419,
      "kmĠ)Ġ": 2420,
      "uk": 2421,
      "wideĠ": 2422,
      "relation": 2423,
      "wasĠalsoĠ": 2424,
      "inĠ)Ġ": 2425,
      "classĠ": 2426,
      "Euro": 2427,
      "Gl": 2428,
      "behindĠ": 2429,
      "\"ĠtheĠ": 2430,
      "bridgeĠ": 2431,
      "haelĠ": 2432,
      "ashĠ": 2433,
      ".ĠIn": 2434,
      "risĠ": 2435,
      "visionĠ": 2436,
      "ificĠ": 2437,
      "ratherĠ": 2438,
      "yĠ'sĠ": 2439,
      "draw": 2440,
      "exc": 2441,
      "supportĠ": 2442,
      "ticeĠ": 2443,
      "levelĠ": 2444,
      "popularĠ": 2445,
      "scre": 2446,
      "entĠ,Ġ": 2447,
      "agedĠ": 2448,
      "2012Ġ": 2449,
      "hasĠaĠ": 2450,
      "edi": 2451,
      "ib": 2452,
      "campaignĠ": 2453,
      "whiteĠ": 2454,
      "fif": 2455,
      "NĠ": 2456,
      "associ": 2457,
      "dsĠofĠ": 2458,
      "inesĠ": 2459,
      "les": 2460,
      "prac": 2461,
      "sĠthatĠ": 2462,
      "natur": 2463,
      "pen": 2464,
      ".ĠItĠisĠ": 2465,
      "ingĠhisĠ": 2466,
      "29Ġ": 2467,
      "encesĠ": 2468,
      "189": 2469,
      "eĠ'sĠ": 2470,
      "fig": 2471,
      "figh": 2472,
      "stre": 2473,
      "tern": 2474,
      "routeĠ": 2475,
      "wif": 2476,
      "portĠ": 2477,
      "CountyĠ": 2478,
      ".ĠAtĠtheĠ": 2479,
      "ordĠ": 2480,
      "additionĠ": 2481,
      "separ": 2482,
      "difficul": 2483,
      "agesĠ": 2484,
      "nomin": 2485,
      "edĠonĠtheĠ": 2486,
      "Fin": 2487,
      "edĠofĠ": 2488,
      "everyĠ": 2489,
      "ust": 2490,
      "ush": 2491,
      "subsequ": 2492,
      "eenĠ": 2493,
      "rul": 2494,
      "fromĠaĠ": 2495,
      "anĠ'sĠ": 2496,
      "achi": 2497,
      "cam": 2498,
      "almostĠ": 2499,
      "gunĠ": 2500,
      "laun": 2501,
      "Europ": 2502,
      "originallyĠ": 2503,
      "law": 2504,
      "ax": 2505,
      "electr": 2506,
      "whileĠtheĠ": 2507,
      "RoyalĠ": 2508,
      "eitherĠ": 2509,
      "ĠAĠ": 2510,
      "0Ġ@.@Ġ": 2511,
      "featuresĠ": 2512,
      "dou": 2513,
      "sĠ,ĠwhichĠ": 2514,
      "roundĠ": 2515,
      "EastĠ": 2516,
      "Bur": 2517,
      "dev": 2518,
      "addi": 2519,
      "resĠ(Ġ": 2520,
      "righ": 2521,
      "Sch": 2522,
      "shor": 2523,
      "post": 2524,
      "workingĠ": 2525,
      "Thom": 2526,
      "order": 2527,
      "scrip": 2528,
      "elĠ,Ġ": 2529,
      "heavyĠ": 2530,
      "Mad": 2531,
      "Franc": 2532,
      "lĠ@-@Ġ": 2533,
      "piec": 2534,
      "ingĠ\"Ġ": 2535,
      "rap": 2536,
      "stonĠ": 2537,
      "BCĠ": 2538,
      "andingĠ": 2539,
      "eĠ,ĠwhichĠ": 2540,
      "2009Ġ": 2541,
      "kmĠ/Ġ": 2542,
      "EĠ": 2543,
      "sĠareĠ": 2544,
      "broughtĠ": 2545,
      "pointsĠ": 2546,
      "alistĠ": 2547,
      "neg": 2548,
      "troop": 2549,
      "plan": 2550,
      "leastĠ": 2551,
      "ndĠ": 2552,
      "Ital": 2553,
      "possibleĠ": 2554,
      "essionĠ": 2555,
      "200Ġ": 2556,
      "observ": 2557,
      "Ear": 2558,
      "thĠandĠ": 2559,
      "return": 2560,
      "econom": 2561,
      "youngĠ": 2562,
      ")Ġ,ĠandĠ": 2563,
      "cel": 2564,
      "say": 2565,
      "allĠ,Ġ": 2566,
      "pain": 2567,
      "WorldĠWarĠ": 2568,
      "recog": 2569,
      "residentĠ": 2570,
      "avail": 2571,
      ",ĠwithĠ": 2572,
      "Vir": 2573,
      "effor": 2574,
      "successfulĠ": 2575,
      "hand": 2576,
      "individ": 2577,
      "esĠaĠ": 2578,
      "mater": 2579,
      "Chris": 2580,
      "busin": 2581,
      "putĠ": 2582,
      "organiz": 2583,
      "signedĠ": 2584,
      "80Ġ": 2585,
      "Scho": 2586,
      "enceĠofĠ": 2587,
      "ampionshipĠ": 2588,
      "che": 2589,
      "towardsĠ": 2590,
      "\"Ġ.ĠTheĠ": 2591,
      "mir": 2592,
      "amaĠ": 2593,
      "aul": 2594,
      "stand": 2595,
      "leĠofĠ": 2596,
      "sĠaĠ": 2597,
      "motherĠ": 2598,
      "kmĠ/ĠhĠ": 2599,
      "ologicalĠ": 2600,
      "sheĠwasĠ": 2601,
      "\"ĠTheĠ": 2602,
      "east": 2603,
      "upĠtoĠ": 2604,
      "comment": 2605,
      "\"ĠwasĠ": 2606,
      "\"Ġ,ĠandĠ": 2607,
      "modernĠ": 2608,
      "generalĠ": 2609,
      "hour": 2610,
      "Pri": 2611,
      "ittedĠ": 2612,
      "Cre": 2613,
      "regionĠ": 2614,
      "alongĠtheĠ": 2615,
      "exist": 2616,
      "stryĠ": 2617,
      "ĠAfterĠ": 2618,
      "readyĠ": 2619,
      "raĠ": 2620,
      "Brit": 2621,
      "educ": 2622,
      "dic": 2623,
      "ateĠtheĠ": 2624,
      "2007Ġ": 2625,
      "sĠinĠtheĠ": 2626,
      "consideredĠ": 2627,
      "conn": 2628,
      "atedĠtheĠ": 2629,
      "tianĠ": 2630,
      "occ": 2631,
      "minut": 2632,
      "aticĠ": 2633,
      "seeĠ": 2634,
      "art": 2635,
      "raceĠ": 2636,
      "discover": 2637,
      "clubĠ": 2638,
      "blackĠ": 2639,
      "heĠhadĠ": 2640,
      "conv": 2641,
      "loo": 2642,
      "six": 2643,
      "BestĠ": 2644,
      ")Ġ.ĠTheĠ": 2645,
      "down": 2646,
      "generallyĠ": 2647,
      "prec": 2648,
      "chesĠ": 2649,
      "nonĠ@-@Ġ": 2650,
      "westernĠ": 2651,
      "eph": 2652,
      "John": 2653,
      "soonĠ": 2654,
      "turalĠ": 2655,
      "irstĠ": 2656,
      "gerĠ": 2657,
      "fewĠ": 2658,
      "closeĠ": 2659,
      "plann": 2660,
      "indic": 2661,
      "fullyĠ": 2662,
      "record": 2663,
      "Europe": 2664,
      "ellingĠ": 2665,
      "employ": 2666,
      "nĠ'tĠ": 2667,
      "sour": 2668,
      "Mal": 2669,
      "exten": 2670,
      "inform": 2671,
      "500Ġ": 2672,
      "vers": 2673,
      "Mil": 2674,
      "ashingtonĠ": 2675,
      "exec": 2676,
      "worksĠ": 2677,
      "tionĠ=Ġ=Ċ": 2678,
      "DavidĠ": 2679,
      "Cour": 2680,
      "ParkĠ": 2681,
      "ox": 2682,
      "metĠ": 2683,
      "aut": 2684,
      "sor": 2685,
      "asterĠ": 2686,
      "stageĠ": 2687,
      "agoĠ": 2688,
      "ovi": 2689,
      "Squ": 2690,
      "broad": 2691,
      "inĠanĠ": 2692,
      "requir": 2693,
      "aidĠ": 2694,
      "Am": 2695,
      "enter": 2696,
      "byĠaĠ": 2697,
      "foc": 2698,
      "andĠhisĠ": 2699,
      "pedĠ": 2700,
      "Ġ=Ġ=Ġ=Ġ=Ġ": 2701,
      "ĠAl": 2702,
      "helpĠ": 2703,
      "FĠ": 2704,
      "Mo": 2705,
      "echĠ": 2706,
      "adem": 2707,
      "Rich": 2708,
      "70Ġ": 2709,
      "edĠinĠaĠ": 2710,
      "usĠ,Ġ": 2711,
      "Dr": 2712,
      "conduc": 2713,
      "expres": 2714,
      "mphĠ": 2715,
      "partyĠ": 2716,
      "evid": 2717,
      "Chin": 2718,
      "captur": 2719,
      "\"Ġ(Ġ": 2720,
      "openĠ": 2721,
      "bil": 2722,
      "ge": 2723,
      "torsĠ": 2724,
      "legeĠ": 2725,
      "public": 2726,
      "ainedĠ": 2727,
      "super": 2728,
      "apĠ": 2729,
      "aldĠ": 2730,
      "workedĠ": 2731,
      "nessĠ": 2732,
      "arkĠ": 2733,
      "midĠ": 2734,
      "my": 2735,
      "exampl": 2736,
      "ĠTh": 2737,
      ".ĠWhileĠ": 2738,
      "onesĠ": 2739,
      "bat": 2740,
      "shotĠ": 2741,
      "class": 2742,
      "assist": 2743,
      "dateĠ": 2744,
      "oul": 2745,
      "withĠhisĠ": 2746,
      "Ab": 2747,
      "KĠ": 2748,
      "mix": 2749,
      "damageĠ": 2750,
      "effec": 2751,
      "roomĠ": 2752,
      "vesĠ": 2753,
      "stationĠ": 2754,
      "leng": 2755,
      "promo": 2756,
      "tĠwasĠ": 2757,
      "islandĠ": 2758,
      "ioĠ": 2759,
      "esterĠ": 2760,
      "Tur": 2761,
      "edĠasĠaĠ": 2762,
      "startedĠ": 2763,
      "woĠ": 2764,
      "Bel": 2765,
      "deter": 2766,
      "othersĠ": 2767,
      "inspir": 2768,
      "ession": 2769,
      "doesĠ": 2770,
      "mentĠofĠ": 2771,
      "highwayĠ": 2772,
      "duceĠ": 2773,
      "tsĠandĠ": 2774,
      "withinĠtheĠ": 2775,
      "fourthĠ": 2776,
      "itte": 2777,
      "utiveĠ": 2778,
      "edĠitĠ": 2779,
      "tionĠ,Ġ": 2780,
      "enseĠ": 2781,
      "appoin": 2782,
      "affĠ": 2783,
      "Ġ,ĠbutĠ": 2784,
      "battleĠ": 2785,
      "illeĠ": 2786,
      "EuropeanĠ": 2787,
      "urĠ": 2788,
      "Se": 2789,
      "abor": 2790,
      "contribu": 2791,
      "Compan": 2792,
      "12": 2793,
      "largestĠ": 2794,
      "Val": 2795,
      "efor": 2796,
      "ligh": 2797,
      "any": 2798,
      "prepar": 2799,
      "kyĠ": 2800,
      "intend": 2801,
      "ĠInĠtheĠ": 2802,
      "remov": 2803,
      "cycl": 2804,
      "mot": 2805,
      "conc": 2806,
      "isĠ,Ġ": 2807,
      "particularlyĠ": 2808,
      "WashingtonĠ": 2809,
      "significantĠ": 2810,
      "Hun": 2811,
      "rainĠ": 2812,
      "Pal": 2813,
      "ageĠ,Ġ": 2814,
      "erousĠ": 2815,
      "rĠ": 2816,
      "gin": 2817,
      "serveĠ": 2818,
      "chedĠ": 2819,
      "Fil": 2820,
      "agu": 2821,
      "chi": 2822,
      "andĠ,Ġ": 2823,
      "\"ĠandĠ\"Ġ": 2824,
      "multi": 2825,
      "atĠnumberĠ": 2826,
      "toĠhaveĠ": 2827,
      "highestĠ": 2828,
      "agg": 2829,
      "activeĠ": 2830,
      "Vic": 2831,
      "landsĠ": 2832,
      "driv": 2833,
      "sureĠ": 2834,
      "initiallyĠ": 2835,
      "Cam": 2836,
      "eventĠ": 2837,
      "uni": 2838,
      "pil": 2839,
      "officialĠ": 2840,
      "real": 2841,
      "songsĠ": 2842,
      "Republ": 2843,
      "competi": 2844,
      "KingdomĠ": 2845,
      "2013Ġ": 2846,
      "net": 2847,
      "pic": 2848,
      "surviv": 2849,
      "2Ġ@.@Ġ": 2850,
      "relig": 2851,
      "forcesĠ": 2852,
      "priv": 2853,
      "atorsĠ": 2854,
      "pot": 2855,
      "magaz": 2856,
      "southernĠ": 2857,
      "ment": 2858,
      "clas": 2859,
      "milesĠ(Ġ": 2860,
      "vent": 2861,
      "nar": 2862,
      "ourn": 2863,
      "Ber": 2864,
      "1stĠ": 2865,
      "ocialĠ": 2866,
      "PĠ": 2867,
      "ĠWh": 2868,
      "AirĠ": 2869,
      "langu": 2870,
      "edĠ.Ċ": 2871,
      "character": 2872,
      "nav": 2873,
      "aroundĠtheĠ": 2874,
      "Hol": 2875,
      "spor": 2876,
      "leĠ,Ġ": 2877,
      "We": 2878,
      "ai": 2879,
      "tun": 2880,
      "Cali": 2881,
      "sonĠ,Ġ": 2882,
      "toĠhisĠ": 2883,
      "cesĠ": 2884,
      "wonĠtheĠ": 2885,
      "ressionĠ": 2886,
      "UniversityĠ": 2887,
      "viol": 2888,
      "Â°": 2889,
      "Mi": 2890,
      "InĠ": 2891,
      "found": 2892,
      "tourĠ": 2893,
      "iss": 2894,
      "ersĠwereĠ": 2895,
      "rockĠ": 2896,
      "adronĠ": 2897,
      "loveĠ": 2898,
      "ask": 2899,
      "playingĠ": 2900,
      "Jer": 2901,
      "essĠ,Ġ": 2902,
      "combin": 2903,
      "aulĠ": 2904,
      "lear": 2905,
      "servic": 2906,
      ".ĠIĠ": 2907,
      "keyĠ": 2908,
      "meas": 2909,
      ".ĠSt": 2910,
      "gramĠ": 2911,
      "immedi": 2912,
      "forn": 2913,
      ".ĠDuringĠtheĠ": 2914,
      "edĠhimĠ": 2915,
      "reduc": 2916,
      "ersĠofĠ": 2917,
      "acqu": 2918,
      ".ĠWithĠ": 2919,
      "endĠofĠ": 2920,
      "defin": 2921,
      "HenryĠ": 2922,
      "eraĠ": 2923,
      "specialĠ": 2924,
      "commerc": 2925,
      "sĠandĠtheĠ": 2926,
      "daugh": 2927,
      "ketĠ": 2928,
      "amentĠ": 2929,
      "centur": 2930,
      "moveĠ": 2931,
      "antryĠ": 2932,
      "MichaelĠ": 2933,
      "3Ġ@.@Ġ": 2934,
      "fr": 2935,
      "Ale": 2936,
      "positiveĠ": 2937,
      "oriesĠ": 2938,
      "2006Ġ": 2939,
      "achiev": 2940,
      ".Ġ\"ĠTheĠ": 2941,
      "school": 2942,
      "northernĠ": 2943,
      "Mac": 2944,
      "victoryĠ": 2945,
      "eth": 2946,
      "north": 2947,
      "humanĠ": 2948,
      "Po": 2949,
      "clu": 2950,
      "etingĠ": 2951,
      "plat": 2952,
      "appearanceĠ": 2953,
      "wid": 2954,
      "alionĠ": 2955,
      "accep": 2956,
      "activ": 2957,
      "fallĠ": 2958,
      "usuallyĠ": 2959,
      "tom": 2960,
      "35Ġ": 2961,
      "De": 2962,
      "ingĠitĠ": 2963,
      "oleĠ": 2964,
      "Em": 2965,
      "inglyĠ": 2966,
      "Sou": 2967,
      "epend": 2968,
      "Bra": 2969,
      "lawĠ": 2970,
      "ranĠ": 2971,
      "umb": 2972,
      "Rev": 2973,
      "farĠ": 2974,
      "oĠ'sĠ": 2975,
      "amoun": 2976,
      "acyĠ": 2977,
      "toldĠ": 2978,
      "civ": 2979,
      "\"ĠaĠ": 2980,
      "ierĠ": 2981,
      "whoĠhadĠ": 2982,
      "aĠwasĠ": 2983,
      "near": 2984,
      "RobertĠ": 2985,
      "midĠ@-@Ġ": 2986,
      "includingĠtheĠ": 2987,
      "independ": 2988,
      ".ĠAccordingĠtoĠ": 2989,
      "ellsĠ": 2990,
      "particip": 2991,
      "oĠandĠ": 2992,
      "istsĠ": 2993,
      "ersĠtoĠ": 2994,
      "bul": 2995,
      "writingĠ": 2996,
      "postĠ": 2997,
      "oppos": 2998,
      "ricĠ": 2999,
      "spentĠ": 3000,
      "phys": 3001,
      "break": 3002,
      "Fre": 3003,
      "BĠ": 3004,
      "ben": 3005,
      "previouslyĠ": 3006,
      "mustĠ": 3007,
      "urb": 3008,
      "betterĠ": 3009,
      "InternationalĠ": 3010,
      "findĠ": 3011,
      "crewĠ": 3012,
      "responsi": 3013,
      "till": 3014,
      "syn": 3015,
      "rangeĠ": 3016,
      "Californ": 3017,
      "earlierĠ": 3018,
      "TĠ": 3019,
      "bomb": 3020,
      "PresidentĠ": 3021,
      "guit": 3022,
      "Christ": 3023,
      "CharlesĠ": 3024,
      "centralĠ": 3025,
      "Angel": 3026,
      "No.Ġ": 3027,
      "proper": 3028,
      "iddleĠ": 3029,
      "inĠ,Ġ": 3030,
      "ĠN": 3031,
      "unc": 3032,
      "quick": 3033,
      "allĠtheĠ": 3034,
      "itselfĠ": 3035,
      "ratherĠthanĠ": 3036,
      "whereĠtheĠ": 3037,
      "oph": 3038,
      "atedĠbyĠ": 3039,
      "ullĠ": 3040,
      "75Ġ": 3041,
      "vot": 3042,
      "estig": 3043,
      "accoun": 3044,
      "portra": 3045,
      "UnionĠ": 3046,
      "reng": 3047,
      "rail": 3048,
      "weeksĠ": 3049,
      "Ġ,ĠwhichĠ": 3050,
      "domin": 3051,
      "useĠofĠ": 3052,
      "cou": 3053,
      "188": 3054,
      "High": 3055,
      "FirstĠ": 3056,
      "happ": 3057,
      "donĠ": 3058,
      "£Ġ": 3059,
      "gir": 3060,
      "stra": 3061,
      "recordedĠ": 3062,
      "reas": 3063,
      "illi": 3064,
      "omet": 3065,
      "stsĠ": 3066,
      "reli": 3067,
      "tsĠtoĠ": 3068,
      "icanĠ": 3069,
      "aboveĠ": 3070,
      "seasonĠ,Ġ": 3071,
      "onĠhisĠ": 3072,
      "teenĠ": 3073,
      "YĠ": 3074,
      "hurricaneĠ": 3075,
      "ine": 3076,
      "beganĠtoĠ": 3077,
      "fed": 3078,
      "186": 3079,
      "MusicĠ": 3080,
      "Ros": 3081,
      "appl": 3082,
      "alĠandĠ": 3083,
      "GreatĠ": 3084,
      "monthsĠ": 3085,
      "tou": 3086,
      "soundĠ": 3087,
      "oxĠ": 3088,
      "hitĠ": 3089,
      "ellowĠ": 3090,
      "ek": 3091,
      "ixĠ": 3092,
      "standingĠ": 3093,
      "alĠ@-@Ġ": 3094,
      "unitsĠ": 3095,
      "entireĠ": 3096,
      "starĠ": 3097,
      "movedĠ": 3098,
      "seaĠ": 3099,
      "knownĠasĠ": 3100,
      "U.S.Ġ": 3101,
      "projectĠ": 3102,
      "Sw": 3103,
      "Kor": 3104,
      "commandĠ": 3105,
      "31Ġ": 3106,
      "giveĠ": 3107,
      "thĠofĠ": 3108,
      "mean": 3109,
      "relationshipĠ": 3110,
      "Mat": 3111,
      "Flor": 3112,
      "charg": 3113,
      "returnedĠtoĠ": 3114,
      "caseĠ": 3115,
      "part": 3116,
      "sceneĠ": 3117,
      "hop": 3118,
      "trac": 3119,
      "author": 3120,
      "termĠ": 3121,
      "don": 3122,
      "enoughĠ": 3123,
      "Play": 3124,
      "additionalĠ": 3125,
      "streng": 3126,
      "occup": 3127,
      "officeĠ": 3128,
      "0sĠ,Ġ": 3129,
      "theastĠ": 3130,
      "ques": 3131,
      "soldi": 3132,
      "nineĠ": 3133,
      "reachedĠ": 3134,
      "Jack": 3135,
      "risonĠ": 3136,
      "erĠofĠtheĠ": 3137,
      "eed": 3138,
      "isĠnotĠ": 3139,
      "fullĠ": 3140,
      "eeĠ": 3141,
      "whoseĠ": 3142,
      "interestĠ": 3143,
      "techn": 3144,
      "turnedĠ": 3145,
      "Ġ,ĠaĠ": 3146,
      "leagueĠ": 3147,
      "Sha": 3148,
      "AmericaĠ": 3149,
      "Â£Ġ": 3150,
      "und": 3151,
      "âĢĻĠsĠ": 3152,
      "directorĠ": 3153,
      "alongĠwithĠ": 3154,
      "churchĠ": 3155,
      "mayĠbeĠ": 3156,
      "nĠ,Ġ": 3157,
      "stitu": 3158,
      "ffĠ": 3159,
      "Bal": 3160,
      "successĠ": 3161,
      "cal": 3162,
      "drewĠ": 3163,
      "hos": 3164,
      "ativ": 3165,
      "personĠ": 3166,
      "sex": 3167,
      "ariesĠ": 3168,
      "ataĠ": 3169,
      "imentĠ": 3170,
      "eumĠ": 3171,
      "coĠ@-@Ġ": 3172,
      "argu": 3173,
      "control": 3174,
      "couldĠbeĠ": 3175,
      "recordingĠ": 3176,
      "Air": 3177,
      "onicĠ": 3178,
      "availableĠ": 3179,
      "rowĠ": 3180,
      "studioĠ": 3181,
      "Res": 3182,
      "whomĠ": 3183,
      "Associ": 3184,
      "beginningĠ": 3185,
      "openingĠ": 3186,
      "inĠL": 3187,
      "aĠnewĠ": 3188,
      "populationĠ": 3189,
      "ThomasĠ": 3190,
      "lowerĠ": 3191,
      "arsĠ": 3192,
      "bergĠ": 3193,
      "yardĠ": 3194,
      "isc": 3195,
      "IslandĠ": 3196,
      "so": 3197,
      "45Ġ": 3198,
      "Bu": 3199,
      "Med": 3200,
      "lackĠ": 3201,
      "otsĠ": 3202,
      "IndianĠ": 3203,
      "declar": 3204,
      "coastĠ": 3205,
      "sus": 3206,
      "orĠofĠ": 3207,
      "commis": 3208,
      "corpor": 3209,
      "atĠleastĠ": 3210,
      "totalĠ": 3211,
      "jud": 3212,
      "seriesĠofĠ": 3213,
      "alsĠ,Ġ": 3214,
      "90Ġ": 3215,
      "recogn": 3216,
      "rup": 3217,
      "remainedĠ": 3218,
      "Met": 3219,
      "CupĠ": 3220,
      "dri": 3221,
      "edsĠ": 3222,
      "alli": 3223,
      "ner": 3224,
      "isĠanĠ": 3225,
      "Cha": 3226,
      "set": 3227,
      "itingĠ": 3228,
      "internationalĠ": 3229,
      "Isl": 3230,
      "sĠfromĠ": 3231,
      "quicklyĠ": 3232,
      "eĠ,ĠaĠ": 3233,
      "amb": 3234,
      ".ĠOneĠ": 3235,
      "withinĠ": 3236,
      "progr": 3237,
      "Jos": 3238,
      "2014Ġ": 3239,
      "Ag": 3240,
      "excep": 3241,
      "likelyĠ": 3242,
      "anal": 3243,
      "allowĠ": 3244,
      "Moun": 3245,
      "van": 3246,
      "secur": 3247,
      "isedĠ": 3248,
      "Govern": 3249,
      "leadingĠ": 3250,
      "isĠalsoĠ": 3251,
      "carĠ": 3252,
      "freeĠ": 3253,
      "viaĠ": 3254,
      "atedĠtoĠ": 3255,
      "acrossĠtheĠ": 3256,
      "FranceĠ": 3257,
      "mb": 3258,
      "espec": 3259,
      "alreadyĠ": 3260,
      "armyĠ": 3261,
      "WesternĠ": 3262,
      "build": 3263,
      "situ": 3264,
      "ĠK": 3265,
      "brotherĠ": 3266,
      "Tri": 3267,
      "untilĠtheĠ": 3268,
      "enĠ'sĠ": 3269,
      "orialĠ": 3270,
      "aiĠ": 3271,
      "test": 3272,
      "continuedĠtoĠ": 3273,
      "redĠtoĠ": 3274,
      "ideaĠ": 3275,
      "JapanĠ": 3276,
      "decisionĠ": 3277,
      "sĠ(Ġ": 3278,
      "especiallyĠ": 3279,
      "polic": 3280,
      "ith": 3281,
      "bitĠ": 3282,
      "flo": 3283,
      "ppedĠ": 3284,
      "inĠ@-@Ġ": 3285,
      "SchoolĠ": 3286,
      "Pac": 3287,
      "BritainĠ": 3288,
      "The": 3289,
      "Sen": 3290,
      "antlyĠ": 3291,
      "throughoutĠtheĠ": 3292,
      "Ter": 3293,
      "enthĠ": 3294,
      "agĠ": 3295,
      "AwardĠ": 3296,
      "maryĠ": 3297,
      "turesĠ": 3298,
      "socialĠ": 3299,
      "II": 3300,
      "Pe": 3301,
      "mas": 3302,
      "stlyĠ": 3303,
      "moneyĠ": 3304,
      "eĠ(Ġ": 3305,
      "2ĠâĢĵĠ": 3306,
      "debutĠ": 3307,
      "laterĠ,Ġ": 3308,
      "yearĠ,Ġ": 3309,
      "Virgin": 3310,
      "electionĠ": 3311,
      "RouteĠ": 3312,
      "ruis": 3313,
      "aĠ@-@Ġ": 3314,
      "Hor": 3315,
      "award": 3316,
      "appointedĠ": 3317,
      "easternĠ": 3318,
      "Mag": 3319,
      "approxim": 3320,
      "Dan": 3321,
      "Ver": 3322,
      "poraryĠ": 3323,
      "inĠtheirĠ": 3324,
      "enem": 3325,
      "enceĠ,Ġ": 3326,
      "edĠanĠ": 3327,
      "rateĠ": 3328,
      "readĠ": 3329,
      "programĠ": 3330,
      "ancesĠ": 3331,
      "\"ĠS": 3332,
      "kil": 3333,
      "dom": 3334,
      "frequ": 3335,
      "tan": 3336,
      "Chi": 3337,
      "Sovi": 3338,
      "olutionĠ": 3339,
      "chingĠ": 3340,
      "edyĠ": 3341,
      "arrang": 3342,
      "onĠtoĠ": 3343,
      ".ĠDesp": 3344,
      "ticallyĠ": 3345,
      "thatĠitĠ": 3346,
      "antas": 3347,
      "orderĠtoĠ": 3348,
      "ball": 3349,
      "settl": 3350,
      "withĠanĠ": 3351,
      "turnĠ": 3352,
      "ÃŃ": 3353,
      "Ham": 3354,
      "mightĠ": 3355,
      "Dem": 3356,
      "stoneĠ": 3357,
      "averageĠ": 3358,
      "edlyĠ": 3359,
      ".ĠU": 3360,
      "reti": 3361,
      "statesĠ": 3362,
      "siaĠ": 3363,
      "2005Ġ": 3364,
      "aperĠ": 3365,
      "flic": 3366,
      "He": 3367,
      "adap": 3368,
      "ialsĠ": 3369,
      "discus": 3370,
      "latterĠ": 3371,
      "holdĠ": 3372,
      "investig": 3373,
      "percentĠ": 3374,
      "basedĠonĠ": 3375,
      "aĠfewĠ": 3376,
      "exper": 3377,
      "wordĠ": 3378,
      "eventsĠ": 3379,
      "rat": 3380,
      "musicalĠ": 3381,
      "whereĠheĠ": 3382,
      "twoĠ@-@Ġ": 3383,
      "ferenceĠ": 3384,
      "ateg": 3385,
      "sometimesĠ": 3386,
      "iedĠ": 3387,
      "calledĠtheĠ": 3388,
      "Chic": 3389,
      "ument": 3390,
      "princ": 3391,
      "trainingĠ": 3392,
      "old": 3393,
      "daughterĠ": 3394,
      "identĠ": 3395,
      "fleetĠ": 3396,
      "isticĠ": 3397,
      "occas": 3398,
      "finish": 3399,
      "inĠ198": 3400,
      "thanĠtheĠ": 3401,
      "oweverĠ,ĠtheĠ": 3402,
      "sectionĠ": 3403,
      "odayĠ": 3404,
      "uponĠ": 3405,
      "eĠwasĠ": 3406,
      "lymp": 3407,
      "decidedĠtoĠ": 3408,
      "ix": 3409,
      "staffĠ": 3410,
      "phot": 3411,
      "liter": 3412,
      "small": 3413,
      ".ĠSomeĠ": 3414,
      "becameĠtheĠ": 3415,
      "territ": 3416,
      "intĠ": 3417,
      "isl": 3418,
      "heal": 3419,
      "sonĠ'sĠ": 3420,
      "=Ġ=Ġ=Ġ=Ċ": 3421,
      "Du": 3422,
      "profession": 3423,
      "inĠM": 3424,
      "icĠ,Ġ": 3425,
      "baseĠ": 3426,
      "2ndĠ": 3427,
      "letĠ": 3428,
      "allĠofĠ": 3429,
      "coverĠ": 3430,
      "feetĠ(Ġ": 3431,
      "ootĠ": 3432,
      "entionĠ": 3433,
      "futureĠ": 3434,
      "great": 3435,
      "nearĠtheĠ": 3436,
      "nearlyĠ": 3437,
      "Span": 3438,
      "YouĠ": 3439,
      "regularĠ": 3440,
      "appearĠ": 3441,
      "ingsĠ,Ġ": 3442,
      "inĠtheĠUnitedĠStatesĠ": 3443,
      "avo": 3444,
      "goalĠ": 3445,
      "purch": 3446,
      "liz": 3447,
      "lyric": 3448,
      "pastĠ": 3449,
      "condi": 3450,
      "after": 3451,
      ".ĠToĠ": 3452,
      "iĠ@-@Ġ": 3453,
      "viron": 3454,
      "planĠ": 3455,
      "escap": 3456,
      "Cong": 3457,
      "inĠitsĠ": 3458,
      "sterĠ": 3459,
      "interest": 3460,
      "miĠ)Ġ": 3461,
      "IĠ'": 3462,
      "NavyĠ": 3463,
      "sem": 3464,
      "Bill": 3465,
      ".ĠUn": 3466,
      "tionsĠ,Ġ": 3467,
      "addedĠ": 3468,
      "Olymp": 3469,
      "reveal": 3470,
      ",ĠasĠ": 3471,
      "mur": 3472,
      "kenĠ": 3473,
      "StarĠ": 3474,
      "3ĠâĢĵĠ": 3475,
      "Sal": 3476,
      "unĠ": 3477,
      "Club": 3478,
      "improv": 3479,
      "wasĠreleasedĠ": 3480,
      "yĠtheĠ": 3481,
      "Atlan": 3482,
      "constructionĠ": 3483,
      "writerĠ": 3484,
      "ysĠ": 3485,
      "surr": 3486,
      "movementĠ": 3487,
      "currentĠ": 3488,
      "conf": 3489,
      "policeĠ": 3490,
      "UniversityĠofĠ": 3491,
      "tedĠinĠ": 3492,
      "doesĠnotĠ": 3493,
      "wal": 3494,
      "ĠE": 3495,
      "need": 3496,
      "certainĠ": 3497,
      "iansĠ": 3498,
      "becameĠaĠ": 3499,
      "Gra": 3500,
      "Counc": 3501,
      "jectsĠ": 3502,
      "lay": 3503,
      "whenĠheĠ": 3504,
      "friendĠ": 3505,
      "Cro": 3506,
      "costĠ": 3507,
      "conclud": 3508,
      "ftĠ)Ġ": 3509,
      "breakĠ": 3510,
      "estimatedĠ": 3511,
      "2015Ġ": 3512,
      "theyĠareĠ": 3513,
      "financ": 3514,
      "udeĠ": 3515,
      "ForceĠ": 3516,
      "edĠwithĠtheĠ": 3517,
      "divisionĠ": 3518,
      "ChineseĠ": 3519,
      "week": 3520,
      "itch": 3521,
      "takingĠ": 3522,
      "enj": 3523,
      "courtĠ": 3524,
      "probl": 3525,
      "4Ġ@.@Ġ": 3526,
      "foodĠ": 3527,
      "ect": 3528,
      "mad": 3529,
      "knownĠasĠtheĠ": 3530,
      "ativelyĠ": 3531,
      "wouldĠhaveĠ": 3532,
      "estiv": 3533,
      "remainingĠ": 3534,
      "PaulĠ": 3535,
      "runningĠ": 3536,
      "Tex": 3537,
      "Off": 3538,
      "did": 3539,
      "now": 3540,
      "onĠSeptemberĠ": 3541,
      "Cal": 3542,
      "asĠ,Ġ": 3543,
      "level": 3544,
      "approximatelyĠ": 3545,
      "listĠ": 3546,
      "desp": 3547,
      "edĠ.ĠTheĠ": 3548,
      "edĠ,ĠandĠ": 3549,
      "footballĠ": 3550,
      "ChurchĠ": 3551,
      "forwardĠ": 3552,
      "tionallyĠ": 3553,
      "Lou": 3554,
      ".ĠV": 3555,
      "iesĠ,Ġ": 3556,
      "TVĠ": 3557,
      "Smi": 3558,
      "mach": 3559,
      "childĠ": 3560,
      "func": 3561,
      "spea": 3562,
      "ratedĠ": 3563,
      "antiĠ@-@Ġ": 3564,
      "prog": 3565,
      "structureĠ": 3566,
      "Brig": 3567,
      "dig": 3568,
      "largerĠ": 3569,
      "eignĠ": 3570,
      "weap": 3571,
      "sportĠ": 3572,
      "1ĠâĢĵĠ": 3573,
      "strictĠ": 3574,
      "themsel": 3575,
      "thatĠwasĠ": 3576,
      "provideĠ": 3577,
      "rad": 3578,
      "CaliforniaĠ": 3579,
      "BlackĠ": 3580,
      "collec": 3581,
      "depic": 3582,
      "Pat": 3583,
      "ped": 3584,
      "MĠ": 3585,
      "ld": 3586,
      "GermanyĠ": 3587,
      "mostlyĠ": 3588,
      "colon": 3589,
      "suppl": 3590,
      "ationsĠ,Ġ": 3591,
      "anĠandĠ": 3592,
      "presidentĠ": 3593,
      "arĠ,Ġ": 3594,
      "Ã¼": 3595,
      "administ": 3596,
      "meth": 3597,
      "mal": 3598,
      "187": 3599,
      "sonsĠ": 3600,
      "erĠtoĠ": 3601,
      "ual": 3602,
      "fall": 3603,
      "communityĠ": 3604,
      "Gi": 3605,
      "Ã¶": 3606,
      "Ã©Ġ": 3607,
      "every": 3608,
      ".ĠAnĠ": 3609,
      "Enter": 3610,
      "chall": 3611,
      "treat": 3612,
      "ChampionshipĠ": 3613,
      "chartĠ": 3614,
      "Cath": 3615,
      "realĠ": 3616,
      "othĠ": 3617,
      "asternĠ": 3618,
      "viceĠ": 3619,
      "tionsĠofĠ": 3620,
      "notĠbeĠ": 3621,
      "returnedĠ": 3622,
      "runsĠ": 3623,
      "burgĠ": 3624,
      "probablyĠ": 3625,
      ".ĠAfterĠtheĠ": 3626,
      "eu": 3627,
      "IIIĠ": 3628,
      "whetherĠ": 3629,
      "2004Ġ": 3630,
      "edĠfromĠtheĠ": 3631,
      "RichardĠ": 3632,
      "bow": 3633,
      "dersĠ": 3634,
      "SanĠ": 3635,
      "emerg": 3636,
      "extr": 3637,
      "expectedĠ": 3638,
      "higherĠ": 3639,
      "commercialĠ": 3640,
      "goldĠ": 3641,
      "distri": 3642,
      "bran": 3643,
      "icoĠ": 3644,
      "ean": 3645,
      "distribu": 3646,
      "kin": 3647,
      "ucle": 3648,
      "increasedĠ": 3649,
      "completeĠ": 3650,
      ".ĠOnĠtheĠ": 3651,
      "suchĠasĠtheĠ": 3652,
      "continuedĠ": 3653,
      "ailĠ": 3654,
      "thusĠ": 3655,
      "orĠtoĠ": 3656,
      "personalĠ": 3657,
      "magazineĠ": 3658,
      "ordin": 3659,
      "effectsĠ": 3660,
      "SovietĠ": 3661,
      "ĠDur": 3662,
      "ym": 3663,
      "livingĠ": 3664,
      "obĠ": 3665,
      "offĠtheĠ": 3666,
      ".ĠOtherĠ": 3667,
      "Lu": 3668,
      "taĠ": 3669,
      "VirginiaĠ": 3670,
      "power": 3671,
      "bertĠ": 3672,
      "umentĠ": 3673,
      "inĠ196": 3674,
      "easeĠ": 3675,
      "300Ġ": 3676,
      "askedĠ": 3677,
      "sun": 3678,
      "Gam": 3679,
      "femaleĠ": 3680,
      "edĠatĠtheĠ": 3681,
      "err": 3682,
      "overallĠ": 3683,
      "maĠ": 3684,
      "anĠun": 3685,
      "surfaceĠ": 3686,
      "itĠ,Ġ": 3687,
      "monthĠ": 3688,
      "RA": 3689,
      "eningĠ": 3690,
      "essĠofĠ": 3691,
      "leaveĠ": 3692,
      "doneĠ": 3693,
      "firm": 3694,
      "temper": 3695,
      "countri": 3696,
      "fol": 3697,
      "road": 3698,
      "sideĠtheĠ": 3699,
      "NYĠ": 3700,
      "injur": 3701,
      "celeb": 3702,
      "WhiteĠ": 3703,
      "chor": 3704,
      "immediatelyĠ": 3705,
      "Dis": 3706,
      "novelĠ": 3707,
      ".ĠTheĠfirstĠ": 3708,
      "cutĠ": 3709,
      "Alli": 3710,
      "HighĠ": 3711,
      "villeĠ": 3712,
      "yĠ@-@Ġ": 3713,
      "Ap": 3714,
      "linesĠ": 3715,
      "Ir": 3716,
      "Recor": 3717,
      "businessĠ": 3718,
      "Tor": 3719,
      "energ": 3720,
      "partsĠ": 3721,
      "sĠ\"Ġ": 3722,
      "IĠ@-@Ġ": 3723,
      "BattleĠofĠ": 3724,
      "Fi": 3725,
      "top": 3726,
      "atoryĠ": 3727,
      "subsequentlyĠ": 3728,
      "dueĠtoĠtheĠ": 3729,
      ".ĠCon": 3730,
      "yr": 3731,
      "reallyĠ": 3732,
      "longerĠ": 3733,
      "univers": 3734,
      "alwaysĠ": 3735,
      "edĠtoĠaĠ": 3736,
      "linĠ": 3737,
      "PartyĠ": 3738,
      "Des": 3739,
      "Jew": 3740,
      "Florid": 3741,
      "venueĠ": 3742,
      "ultim": 3743,
      "icaĠ": 3744,
      "Im": 3745,
      "materialĠ": 3746,
      "mos": 3747,
      "whoĠwasĠ": 3748,
      "HouseĠ": 3749,
      "notherĠ": 3750,
      "wit": 3751,
      "copiesĠ": 3752,
      "clearĠ": 3753,
      "handĠ": 3754,
      "Port": 3755,
      "criticsĠ": 3756,
      "Leg": 3757,
      "tu": 3758,
      "defeatedĠ": 3759,
      "gameĠ'sĠ": 3760,
      "electedĠ": 3761,
      "2Ġ@,@Ġ": 3762,
      "GrandĠ": 3763,
      "responseĠ": 3764,
      "DayĠ": 3765,
      "ushĠ": 3766,
      "reviewĠ": 3767,
      "dayĠ,Ġ": 3768,
      "concep": 3769,
      "Oper": 3770,
      "frontĠ": 3771,
      "ban": 3772,
      ".ĠHeĠalsoĠ": 3773,
      "advanc": 3774,
      "ineĠ,Ġ": 3775,
      "dyĠ": 3776,
      "amongĠtheĠ": 3777,
      "host": 3778,
      "explain": 3779,
      "adop": 3780,
      "BayĠ": 3781,
      "CompanyĠ": 3782,
      "Georg": 3783,
      "ateĠ,Ġ": 3784,
      "Victor": 3785,
      "imm": 3786,
      "jectedĠ": 3787,
      "Ã³": 3788,
      "abil": 3789,
      "despiteĠ": 3790,
      "approach": 3791,
      "summerĠ": 3792,
      "eĠofĠaĠ": 3793,
      "habit": 3794,
      "naturalĠ": 3795,
      "evidenceĠ": 3796,
      "canc": 3797,
      "processĠ": 3798,
      "boxĠ": 3799,
      "cred": 3800,
      "ehic": 3801,
      "ionalĠ": 3802,
      "RomanĠ": 3803,
      "ton": 3804,
      "asp": 3805,
      "itteeĠ": 3806,
      "BillboardĠ": 3807,
      "ChristianĠ": 3808,
      "ofĠB": 3809,
      "Sing": 3810,
      "mediaĠ": 3811,
      "maintain": 3812,
      "writtenĠbyĠ": 3813,
      "classi": 3814,
      "Tra": 3815,
      "orĠtheĠ": 3816,
      "bodi": 3817,
      "instr": 3818,
      "edĠherĠ": 3819,
      "Emp": 3820,
      "inĠ197": 3821,
      ".ĠAsĠaĠ": 3822,
      "publishedĠ": 3823,
      "ster": 3824,
      "ial": 3825,
      "ump": 3826,
      "contractĠ": 3827,
      "privateĠ": 3828,
      ".Ġ\"ĠH": 3829,
      "armĠ": 3830,
      "osaur": 3831,
      "oundingĠ": 3832,
      "PacificĠ": 3833,
      "researchĠ": 3834,
      "get": 3835,
      "seyĠ": 3836,
      ".ĠOn": 3837,
      "legalĠ": 3838,
      "thes": 3839,
      "south": 3840,
      "tyĠ,Ġ": 3841,
      "ward": 3842,
      "engag": 3843,
      "gotĠ": 3844,
      "favor": 3845,
      "prison": 3846,
      "tainmentĠ": 3847,
      "ansĠ,Ġ": 3848,
      "yetĠ": 3849,
      "thatĠtheyĠ": 3850,
      "himĠtoĠ": 3851,
      "37Ġ": 3852,
      "associatedĠ": 3853,
      "selfĠ@-@Ġ": 3854,
      "cĠ": 3855,
      "ondsĠ": 3856,
      "SpanishĠ": 3857,
      "Grou": 3858,
      "CanadianĠ": 3859,
      "Tre": 3860,
      "Maj": 3861,
      "producedĠ": 3862,
      "'sĠfirstĠ": 3863,
      "esĠ\"Ġ": 3864,
      "finishedĠ": 3865,
      ".ĠFollow": 3866,
      "deb": 3867,
      "flightĠ": 3868,
      "strong": 3869,
      "impl": 3870,
      "ĠG": 3871,
      "RedĠ": 3872,
      "pun": 3873,
      "ull": 3874,
      "EdwardĠ": 3875,
      "Tran": 3876,
      "erĠ@-@Ġ": 3877,
      "thĠ@-@Ġ": 3878,
      "initialĠ": 3879,
      "respectivelyĠ": 3880,
      "Del": 3881,
      "ofĠL": 3882,
      "spaceĠ": 3883,
      "regard": 3884,
      "seas": 3885,
      "Sci": 3886,
      "sim": 3887,
      "TimesĠ": 3888,
      "adul": 3889,
      "termin": 3890,
      "parti": 3891,
      "saf": 3892,
      "Ke": 3893,
      "wasĠtheĠfirstĠ": 3894,
      "actionsĠ": 3895,
      "thyĠ": 3896,
      "AtlanticĠ": 3897,
      "conven": 3898,
      "EuropeĠ": 3899,
      "butĠtheĠ": 3900,
      "ographyĠ": 3901,
      "haveĠaĠ": 3902,
      "ChicagoĠ": 3903,
      "distinc": 3904,
      "accordingĠtoĠ": 3905,
      ".ĠInĠadditionĠ": 3906,
      "necess": 3907,
      "dru": 3908,
      "radioĠ": 3909,
      "Studi": 3910,
      "hardĠ": 3911,
      "inch": 3912,
      "shownĠ": 3913,
      "norm": 3914,
      "prev": 3915,
      "onĠandĠ": 3916,
      "developedĠ": 3917,
      "erĠwasĠ": 3918,
      "SecondĠ": 3919,
      "premi": 3920,
      "largelyĠ": 3921,
      "fellĠ": 3922,
      "createĠ": 3923,
      "32Ġ": 3924,
      "adiumĠ": 3925,
      "theat": 3926,
      "osĠAngel": 3927,
      "NAĠ": 3928,
      "lav": 3929,
      "environ": 3930,
      "rickĠ": 3931,
      "numerousĠ": 3932,
      "cleĠ": 3933,
      "scienti": 3934,
      "ailyĠ": 3935,
      "aĠ.Ċ": 3936,
      "altern": 3937,
      "OneĠ": 3938,
      "UnitedĠKingdomĠ": 3939,
      "ientĠ": 3940,
      ".ĠFromĠ": 3941,
      "GodĠ": 3942,
      "promis": 3943,
      "Ot": 3944,
      ":ĠTheĠ": 3945,
      "nation": 3946,
      "inten": 3947,
      "QueenĠ": 3948,
      "anĠinter": 3949,
      "lackĠofĠ": 3950,
      "archit": 3951,
      "4ĠâĢĵĠ": 3952,
      "threeĠ@-@Ġ": 3953,
      "imag": 3954,
      "desig": 3955,
      "Mill": 3956,
      "landĠ,Ġ": 3957,
      "limitedĠ": 3958,
      "StationĠ": 3959,
      "finallyĠ": 3960,
      "Ev": 3961,
      "eĠ\"Ġ": 3962,
      "criticalĠ": 3963,
      "clim": 3964,
      "vehic": 3965,
      "backĠtoĠ": 3966,
      ".ĠDuringĠ": 3967,
      "weightĠ": 3968,
      "lov": 3969,
      "citi": 3970,
      "Mex": 3971,
      "sched": 3972,
      "aughtĠ": 3973,
      "spl": 3974,
      ".ĠSheĠwasĠ": 3975,
      "goingĠ": 3976,
      "professionalĠ": 3977,
      ".ĠAn": 3978,
      "mostĠofĠtheĠ": 3979,
      "broadcastĠ": 3980,
      ".ĠItsĠ": 3981,
      "saidĠthatĠ": 3982,
      "onĠ'sĠ": 3983,
      "newsp": 3984,
      "thereĠwereĠ": 3985,
      "crow": 3986,
      "anceĠofĠ": 3987,
      "sĠ'Ġ": 3988,
      "sideĠofĠtheĠ": 3989,
      "CouncilĠ": 3990,
      "aintĠ": 3991,
      "testĠ": 3992,
      "influenceĠ": 3993,
      "Pi": 3994,
      "-Ġ": 3995,
      "studentsĠ": 3996,
      "ofĠwhichĠ": 3997,
      "senĠ": 3998,
      "primaryĠ": 3999,
      "pressĠ": 4000,
      "sinceĠtheĠ": 4001,
      "edingĠ": 4002,
      "ry": 4003,
      "establishedĠ": 4004,
      "nelĠ": 4005,
      "arg": 4006,
      "wallĠ": 4007,
      "yardsĠ": 4008,
      "Soci": 4009,
      "Carol": 4010,
      "ershipĠ": 4011,
      "elementsĠ": 4012,
      "mom": 4013,
      "wasĠ\"Ġ": 4014,
      "36Ġ": 4015,
      "directlyĠ": 4016,
      "mel": 4017,
      "edĠoutĠ": 4018,
      "selectedĠ": 4019,
      "membersĠofĠtheĠ": 4020,
      "atesĠ,Ġ": 4021,
      "windĠ": 4022,
      "RussianĠ": 4023,
      "atingĠtheĠ": 4024,
      ".ĠTwoĠ": 4025,
      "eforeĠ": 4026,
      "upperĠ": 4027,
      "sound": 4028,
      "factĠ": 4029,
      "Alex": 4030,
      "iganĠ": 4031,
      "DV": 4032,
      "tonsĠ": 4033,
      "ManĠ": 4034,
      "Wat": 4035,
      "zz": 4036,
      ".ĠInĠ200": 4037,
      "esĠfromĠ": 4038,
      "blyĠ": 4039,
      "sayĠ": 4040,
      "ket": 4041,
      "operationsĠ": 4042,
      "famil": 4043,
      "unityĠ": 4044,
      "German": 4045,
      "CentralĠ": 4046,
      "Kar": 4047,
      "actingĠ": 4048,
      "sĠonĠ": 4049,
      "asc": 4050,
      "plansĠ": 4051,
      "wantedĠtoĠ": 4052,
      "ratingĠ": 4053,
      "enantĠ": 4054,
      "ress": 4055,
      "agon": 4056,
      ".ĠHerĠ": 4057,
      "tionĠandĠ": 4058,
      "All": 4059,
      "womanĠ": 4060,
      "conflic": 4061,
      "Eg": 4062,
      "eĠ,Ġ\"Ġ": 4063,
      "eĠofĠhisĠ": 4064,
      "ItĠ": 4065,
      "aeĠ": 4066,
      "ãĥ": 4067,
      "comingĠ": 4068,
      "contem": 4069,
      "ersĠ'Ġ": 4070,
      "eptĠ": 4071,
      "Inf": 4072,
      "athĠ": 4073,
      "edic": 4074,
      "aband": 4075,
      "influenc": 4076,
      "Mer": 4077,
      "siz": 4078,
      "esĠforĠ": 4079,
      "languageĠ": 4080,
      "ationĠwasĠ": 4081,
      "ightsĠ": 4082,
      "somethingĠ": 4083,
      "din": 4084,
      "keepĠ": 4085,
      "retĠ": 4086,
      "tingĠtheĠ": 4087,
      "commanderĠ": 4088,
      "conver": 4089,
      "HighwayĠ": 4090,
      "claimĠ": 4091,
      "itĠ'sĠ": 4092,
      "mĠ,Ġ": 4093,
      "purpos": 4094,
      "ofĠitsĠ": 4095,
      "rdĠ": 4096,
      "scoredĠ": 4097,
      "fiel": 4098,
      "totalĠofĠ": 4099,
      "Minist": 4100,
      "inĠB": 4101,
      "hipĠ": 4102,
      "memberĠofĠtheĠ": 4103,
      "HistoryĠ": 4104,
      "experienceĠ": 4105,
      "cross": 4106,
      "aĠS": 4107,
      "55Ġ": 4108,
      "FAĠ": 4109,
      "cli": 4110,
      "fifthĠ": 4111,
      "keep": 4112,
      "ibleĠ": 4113,
      "edit": 4114,
      "syl": 4115,
      "depressionĠ": 4116,
      "produceĠ": 4117,
      "know": 4118,
      "wifeĠ": 4119,
      "Ara": 4120,
      "riverĠ": 4121,
      "wall": 4122,
      "albumĠ,Ġ": 4123,
      "rout": 4124,
      "bot": 4125,
      "mmĠ)Ġ": 4126,
      "followingĠtheĠ": 4127,
      "winningĠ": 4128,
      "traditionalĠ": 4129,
      "tedĠaĠ": 4130,
      "ersĠ(Ġ": 4131,
      "38Ġ": 4132,
      "individualĠ": 4133,
      "lieĠ": 4134,
      "preĠ@-@Ġ": 4135,
      "traff": 4136,
      "approv": 4137,
      "Zeal": 4138,
      "rayĠ": 4139,
      ".ĠDespiteĠ": 4140,
      "wind": 4141,
      "fightĠ": 4142,
      "Cros": 4143,
      "Mis": 4144,
      "Clar": 4145,
      "oti": 4146,
      "actorĠ": 4147,
      "wasĠre": 4148,
      ")Ġ,ĠtheĠ": 4149,
      "filmsĠ": 4150,
      "mentalĠ": 4151,
      "nucle": 4152,
      "scoreĠ": 4153,
      "Stor": 4154,
      "day": 4155,
      "ofĠH": 4156,
      "sĠ,ĠincludingĠ": 4157,
      "groupsĠ": 4158,
      "causedĠ": 4159,
      "bilityĠ": 4160,
      "toĠmakeĠ": 4161,
      "MartinĠ": 4162,
      "anoĠ": 4163,
      "2000Ġ": 4164,
      "releasedĠinĠ": 4165,
      "Fri": 4166,
      "wa": 4167,
      "standardĠ": 4168,
      "phas": 4169,
      "GameĠ": 4170,
      "oneĠ@-@Ġ": 4171,
      "confirm": 4172,
      "PeterĠ": 4173,
      "directĠ": 4174,
      "thir": 4175,
      "hoodĠ": 4176,
      "point": 4177,
      "LordĠ": 4178,
      "poorĠ": 4179,
      "ItalianĠ": 4180,
      "artistĠ": 4181,
      "gradu": 4182,
      "aĠ,ĠandĠ": 4183,
      "MarkĠ": 4184,
      "33Ġ": 4185,
      "ashi": 4186,
      "organis": 4187,
      "Dar": 4188,
      "hereĠ": 4189,
      "plotĠ": 4190,
      "NewĠZeal": 4191,
      "oodsĠ": 4192,
      "tru": 4193,
      "Democ": 4194,
      "ofĠTheĠ": 4195,
      "studyĠ": 4196,
      "Arch": 4197,
      "buryĠ": 4198,
      "eĠofĠtheĠ": 4199,
      "sĠforĠ": 4200,
      "andĠB": 4201,
      "detail": 4202,
      "featureĠ": 4203,
      "determin": 4204,
      "Cast": 4205,
      "eut": 4206,
      "kilomet": 4207,
      "Gar": 4208,
      "Pen": 4209,
      "intell": 4210,
      "shĠ": 4211,
      "sessionĠ": 4212,
      "attend": 4213,
      "thinkĠ": 4214,
      "etyĠofĠ": 4215,
      "Stev": 4216,
      "doubleĠ": 4217,
      "wasĠanĠ": 4218,
      "enedĠ": 4219,
      "uck": 4220,
      "passĠ": 4221,
      "onĠOctoberĠ": 4222,
      "bal": 4223,
      "syst": 4224,
      "standĠ": 4225,
      "3rdĠ": 4226,
      "usesĠ": 4227,
      "ingu": 4228,
      "fightingĠ": 4229,
      "forĠtheĠfirstĠ": 4230,
      "kĠofĠ": 4231,
      "qual": 4232,
      "nearbyĠ": 4233,
      "belowĠ": 4234,
      ",ĠinĠ": 4235,
      "rankedĠ": 4236,
      "thĠcentur": 4237,
      "2010Ġ,Ġ": 4238,
      "transfer": 4239,
      "numb": 4240,
      "On": 4241,
      "everalĠ": 4242,
      "troopsĠ": 4243,
      "incorpor": 4244,
      "ellĠ,Ġ": 4245,
      "letterĠ": 4246,
      "atĠtheĠtimeĠ": 4247,
      "asĠitĠ": 4248,
      "JohnsonĠ": 4249,
      "verseĠ": 4250,
      "hourĠ": 4251,
      "pressureĠ": 4252,
      "explo": 4253,
      "highlyĠ": 4254,
      "ersĠofĠtheĠ": 4255,
      "echan": 4256,
      "Phil": 4257,
      "tivi": 4258,
      "erĠ(Ġ": 4259,
      "2003Ġ": 4260,
      "yearsĠ,Ġ": 4261,
      "annualĠ": 4262,
      "adyĠ": 4263,
      "Cri": 4264,
      "impres": 4265,
      "commission": 4266,
      "unableĠtoĠ": 4267,
      "Mur": 4268,
      "wellĠ@-@Ġ": 4269,
      "Rail": 4270,
      "olicĠ": 4271,
      "48Ġ": 4272,
      "knowĠ": 4273,
      "49Ġ": 4274,
      "Rh": 4275,
      "eĠtoĠ": 4276,
      "expan": 4277,
      "parkĠ": 4278,
      "smallerĠ": 4279,
      "defeatĠ": 4280,
      "enaĠ": 4281,
      "relatedĠ": 4282,
      "valu": 4283,
      "weal": 4284,
      "promin": 4285,
      "onĠAugustĠ": 4286,
      "'sĠ\"Ġ": 4287,
      "chem": 4288,
      "positionsĠ": 4289,
      "accompan": 4290,
      "inĠandĠ": 4291,
      "informationĠ": 4292,
      "popĠ": 4293,
      "minorĠ": 4294,
      "Mich": 4295,
      "voiceĠ": 4296,
      "mid": 4297,
      "Ca": 4298,
      "ollowĠ": 4299,
      "lookĠ": 4300,
      "anderĠ": 4301,
      "sail": 4302,
      "marketĠ": 4303,
      "Phili": 4304,
      "attemptĠtoĠ": 4305,
      "depar": 4306,
      "install": 4307,
      "upĠtheĠ": 4308,
      "oneĠ,Ġ": 4309,
      "extrem": 4310,
      "refl": 4311,
      "47Ġ": 4312,
      "stitutionĠ": 4313,
      "religiousĠ": 4314,
      "recep": 4315,
      "pal": 4316,
      "deliver": 4317,
      "ty": 4318,
      "neigh": 4319,
      "journ": 4320,
      "inĠH": 4321,
      "2011Ġ,Ġ": 4322,
      "inoĠ": 4323,
      "!Ġ": 4324,
      "try": 4325,
      "BigĠ": 4326,
      "epart": 4327,
      "eter": 4328,
      "gi": 4329,
      "GĠ": 4330,
      "aĠ.ĠTheĠ": 4331,
      "liamentĠ": 4332,
      "castleĠ": 4333,
      "andĠL": 4334,
      "siv": 4335,
      "hisĠfirstĠ": 4336,
      "hospit": 4337,
      "30": 4338,
      "ofĠ\"Ġ": 4339,
      "ationĠforĠ": 4340,
      "opin": 4341,
      "placedĠ": 4342,
      "separateĠ": 4343,
      "inĠthisĠ": 4344,
      "ChrisĠ": 4345,
      "effectĠ": 4346,
      "uckĠ": 4347,
      "formedĠ": 4348,
      "TexasĠ": 4349,
      "hadĠtoĠ": 4350,
      "buildĠ": 4351,
      "Arm": 4352,
      "restĠofĠtheĠ": 4353,
      "ipl": 4354,
      "@-@ĠupĠ": 4355,
      "appe": 4356,
      "fru": 4357,
      "legisl": 4358,
      "Bas": 4359,
      "inchĠ": 4360,
      "minuteĠ": 4361,
      "AwardsĠ": 4362,
      "someĠofĠtheĠ": 4363,
      "Bow": 4364,
      "cruis": 4365,
      "windsĠ": 4366,
      "deadĠ": 4367,
      "asionĠ": 4368,
      "itĠtheĠ": 4369,
      "ationsĠofĠ": 4370,
      "tradeĠ": 4371,
      "fansĠ": 4372,
      "bour": 4373,
      "withĠherĠ": 4374,
      "killedĠ": 4375,
      "iel": 4376,
      "\"Ġ,Ġ\"Ġ": 4377,
      "Pan": 4378,
      "schol": 4379,
      "izeĠ": 4380,
      "Hom": 4381,
      "hou": 4382,
      "Â°Ġ": 4383,
      "iĠ'sĠ": 4384,
      "group": 4385,
      "etteĠ": 4386,
      "ewayĠ": 4387,
      "twent": 4388,
      "SeaĠ": 4389,
      "cerem": 4390,
      "LoveĠ": 4391,
      "HillĠ": 4392,
      "web": 4393,
      "enĠandĠ": 4394,
      ".ĠThe": 4395,
      "Åį": 4396,
      "CollegeĠ": 4397,
      "willĠbeĠ": 4398,
      "thatĠsheĠ": 4399,
      "Mr": 4400,
      "acrossĠ": 4401,
      "outĠofĠtheĠ": 4402,
      ".ĠHoweverĠ,ĠtheĠ": 4403,
      "emo": 4404,
      "maxim": 4405,
      "accessĠ": 4406,
      "EarlyĠ": 4407,
      "antasyĠ": 4408,
      "maleĠ": 4409,
      "experienc": 4410,
      "LakeĠ": 4411,
      "responsibleĠ": 4412,
      "embl": 4413,
      "400Ġ": 4414,
      "wil": 4415,
      "Er": 4416,
      "Fed": 4417,
      "rightsĠ": 4418,
      "anceĠ,Ġ": 4419,
      "yearĠ@-@Ġ": 4420,
      "netĠ": 4421,
      "39Ġ": 4422,
      "Don": 4423,
      "danceĠ": 4424,
      "wasĠtoĠ": 4425,
      "chesterĠ": 4426,
      "Go": 4427,
      "JackĠ": 4428,
      "forĠitsĠ": 4429,
      "You": 4430,
      "ez": 4431,
      "statingĠ": 4432,
      "ayl": 4433,
      "SquadronĠ": 4434,
      "teamsĠ": 4435,
      "eigh": 4436,
      "shireĠ": 4437,
      "AfricanĠ": 4438,
      "resultingĠ": 4439,
      "demon": 4440,
      "pursu": 4441,
      "Fle": 4442,
      "fromĠhisĠ": 4443,
      "ightlyĠ": 4444,
      "quartersĠ": 4445,
      "oilĠ": 4446,
      "adesĠ": 4447,
      "opeĠ": 4448,
      "Sk": 4449,
      "wholeĠ": 4450,
      "&Ġ": 4451,
      "idsĠ": 4452,
      "hu": 4453,
      "payĠ": 4454,
      "yz": 4455,
      "antĠtoĠ": 4456,
      "eutenantĠ": 4457,
      "depend": 4458,
      "cust": 4459,
      "referredĠtoĠ": 4460,
      "Hous": 4461,
      "theirĠownĠ": 4462,
      "constructedĠ": 4463,
      "morningĠ": 4464,
      "low": 4465,
      "primar": 4466,
      "threat": 4467,
      "6Ġ@.@Ġ": 4468,
      "respond": 4469,
      "FinalĠ": 4470,
      "Academ": 4471,
      "repe": 4472,
      "Bre": 4473,
      "see": 4474,
      "ae": 4475,
      "inĠ195": 4476,
      "sĠ,ĠaĠ": 4477,
      "forĠ\"Ġ": 4478,
      "atinĠ": 4479,
      "gameĠ,Ġ": 4480,
      "friendsĠ": 4481,
      "titledĠ": 4482,
      "Depart": 4483,
      "daĠ": 4484,
      "CourtĠ": 4485,
      "paidĠ": 4486,
      "prop": 4487,
      "izationĠ": 4488,
      "InfantryĠ": 4489,
      "araĠ": 4490,
      ".ĠBothĠ": 4491,
      "strug": 4492,
      "story": 4493,
      "Viet": 4494,
      "185": 4495,
      "prin": 4496,
      "resultĠ": 4497,
      "tookĠplaceĠ": 4498,
      "lemĠ": 4499,
      "TeamĠ": 4500,
      "itz": 4501,
      "impro": 4502,
      "pairĠ": 4503,
      "2Ġ)Ġ": 4504,
      "bothĠtheĠ": 4505,
      "activityĠ": 4506,
      "help": 4507,
      "buildingsĠ": 4508,
      "shoo": 4509,
      "65Ġ": 4510,
      ":ĠtheĠ": 4511,
      "operationĠ": 4512,
      "ledĠtoĠ": 4513,
      "ight": 4514,
      "retaryĠ": 4515,
      "describedĠ": 4516,
      "failedĠtoĠ": 4517,
      "awardĠ": 4518,
      "ledĠbyĠ": 4519,
      "networkĠ": 4520,
      "HotĠ": 4521,
      "Äĩ": 4522,
      "passedĠ": 4523,
      "compet": 4524,
      "combatĠ": 4525,
      "MaryĠ": 4526,
      "ator": 4527,
      "economicĠ": 4528,
      "edĠforĠtheĠ": 4529,
      "Produc": 4530,
      "ograp": 4531,
      "Penn": 4532,
      "afterĠaĠ": 4533,
      "cordingĠtoĠtheĠ": 4534,
      "BrownĠ": 4535,
      "susp": 4536,
      "modelĠ": 4537,
      "Ru": 4538,
      "chap": 4539,
      "95Ġ": 4540,
      "fill": 4541,
      "other": 4542,
      "minutesĠ": 4543,
      "Egyp": 4544,
      "startĠ": 4545,
      "continueĠ": 4546,
      "thous": 4547,
      "relyĠ": 4548,
      "actuallyĠ": 4549,
      "Hal": 4550,
      "boundĠ": 4551,
      "actedĠ": 4552,
      "audienceĠ": 4553,
      "shouldĠbeĠ": 4554,
      "Rel": 4555,
      "inĠorderĠtoĠ": 4556,
      ".ĠThatĠ": 4557,
      ";ĠandĠ": 4558,
      "launch": 4559,
      "OldĠ": 4560,
      "dealĠ": 4561,
      "graph": 4562,
      "startingĠ": 4563,
      "ficationĠ": 4564,
      "hav": 4565,
      ";ĠheĠ": 4566,
      "exhi": 4567,
      "scienceĠ": 4568,
      "hoursĠ": 4569,
      "Youn": 4570,
      "directedĠbyĠ": 4571,
      "streamĠ": 4572,
      "Dut": 4573,
      "haĠ": 4574,
      "seem": 4575,
      "BattalionĠ": 4576,
      "appar": 4577,
      "attentionĠ": 4578,
      "May": 4579,
      "thel": 4580,
      "havi": 4581,
      "Gir": 4582,
      "metresĠ(Ġ": 4583,
      "particularĠ": 4584,
      "courseĠ": 4585,
      "Sup": 4586,
      "abe": 4587,
      "themĠtoĠ": 4588,
      "slightlyĠ": 4589,
      "greaterĠ": 4590,
      "gaveĠtheĠ": 4591,
      "eachĠotherĠ": 4592,
      "bra": 4593,
      "iĠandĠ": 4594,
      "tableĠ": 4595,
      "movedĠtoĠ": 4596,
      "diedĠ": 4597,
      "edĠitsĠ": 4598,
      "MyĠ": 4599,
      "ans": 4600,
      "2001Ġ": 4601,
      "peakedĠ": 4602,
      "GreekĠ": 4603,
      "Sam": 4604,
      "primarilyĠ": 4605,
      "tournam": 4606,
      "olu": 4607,
      "increaseĠ": 4608,
      "competitionĠ": 4609,
      "debu": 4610,
      "symb": 4611,
      "inĠT": 4612,
      "visit": 4613,
      "rid": 4614,
      "activi": 4615,
      "YearĠ": 4616,
      "xfordĠ": 4617,
      "uralĠ": 4618,
      "11": 4619,
      "hus": 4620,
      "receivedĠaĠ": 4621,
      "log": 4622,
      "relativelyĠ": 4623,
      "last": 4624,
      "nyĠ": 4625,
      "dĠ,Ġ": 4626,
      "ecaus": 4627,
      "takesĠ": 4628,
      "theĠsameĠ": 4629,
      "AllĠ": 4630,
      "IndiaĠ": 4631,
      "itĠtoĠ": 4632,
      "ofĠtheirĠ": 4633,
      "opport": 4634,
      "manu": 4635,
      "shap": 4636,
      "orĠandĠ": 4637,
      "financialĠ": 4638,
      "ingĠofĠtheĠ": 4639,
      "inĠ17": 4640,
      "mechan": 4641,
      "reportĠ": 4642,
      "edĠintoĠ": 4643,
      "encoun": 4644,
      "torped": 4645,
      "2012Ġ,Ġ": 4646,
      "statusĠ": 4647,
      "CanadaĠ": 4648,
      "Ste": 4649,
      "Ann": 4650,
      "tilleryĠ": 4651,
      "plantĠ": 4652,
      "ultimatelyĠ": 4653,
      "mixedĠ": 4654,
      "portray": 4655,
      "Il": 4656,
      ".ĠTheirĠ": 4657,
      "alesĠ": 4658,
      "ersĠ.Ċ": 4659,
      "46Ġ": 4660,
      "forĠtheirĠ": 4661,
      "groupĠofĠ": 4662,
      "completelyĠ": 4663,
      "CA": 4664,
      "MSĠ": 4665,
      "34Ġ": 4666,
      "helpedĠ": 4667,
      ".ĠAllĠ": 4668,
      "chiefĠ": 4669,
      "wick": 4670,
      ".ĠMostĠ": 4671,
      "middleĠ": 4672,
      "poolĠ": 4673,
      "hir": 4674,
      "ark": 4675,
      "weak": 4676,
      "NA": 4677,
      "Simp": 4678,
      "cot": 4679,
      "yaĠ": 4680,
      "remainĠ": 4681,
      "edĠtheirĠ": 4682,
      "stopĠ": 4683,
      "passeng": 4684,
      "roĠ": 4685,
      "isonĠ": 4686,
      "ofĠT": 4687,
      "touch": 4688,
      "highĠ@-@Ġ": 4689,
      "Ire": 4690,
      "sourceĠ": 4691,
      "multipleĠ": 4692,
      "along": 4693,
      "recomm": 4694,
      "flow": 4695,
      "mouthĠ": 4696,
      "strateg": 4697,
      "kindĠ": 4698,
      "ullyĠ": 4699,
      "ink": 4700,
      "adingĠ": 4701,
      "concent": 4702,
      "umentsĠ": 4703,
      "auĠ": 4704,
      "attemptedĠtoĠ": 4705,
      "Gran": 4706,
      "industryĠ": 4707,
      "circ": 4708,
      ".ĠAd": 4709,
      "ielĠ": 4710,
      "manĠ,Ġ": 4711,
      "becauseĠofĠ": 4712,
      "extendedĠ": 4713,
      "sens": 4714,
      "coachĠ": 4715,
      "collabor": 4716,
      "mainlyĠ": 4717,
      "advis": 4718,
      "producerĠ": 4719,
      "sylvan": 4720,
      "mit": 4721,
      "sellĠ": 4722,
      "inĠtheĠfirstĠ": 4723,
      "potentialĠ": 4724,
      "GroupĠ": 4725,
      "Mel": 4726,
      "Chil": 4727,
      "kĠandĠ": 4728,
      "Princ": 4729,
      "thereĠareĠ": 4730,
      "trafficĠ": 4731,
      "oisĠ": 4732,
      "192": 4733,
      "Sim": 4734,
      "chos": 4735,
      "raticĠ": 4736,
      "drawnĠ": 4737,
      "alleg": 4738,
      "fish": 4739,
      "OĠ'": 4740,
      "enjoy": 4741,
      "Shi": 4742,
      "arityĠ": 4743,
      "doĠnotĠ": 4744,
      "(Ġ199": 4745,
      "erateĠ": 4746,
      "\"Ġ)Ġ": 4747,
      "drawĠ": 4748,
      "ingsĠandĠ": 4749,
      "acu": 4750,
      "describedĠtheĠ": 4751,
      "cycloneĠ": 4752,
      "soughtĠ": 4753,
      "Ġ=ĠĊ": 4754,
      "utyĠ": 4755,
      "minim": 4756,
      "subst": 4757,
      "water": 4758,
      "issueĠ": 4759,
      "performanc": 4760,
      "toĠ@-@Ġ": 4761,
      "ipalĠ": 4762,
      "mingĠ": 4763,
      "ualsĠ": 4764,
      "joinedĠtheĠ": 4765,
      "Dun": 4766,
      "Steph": 4767,
      "struckĠ": 4768,
      "voic": 4769,
      "preventĠ": 4770,
      "movingĠ": 4771,
      "psy": 4772,
      "spac": 4773,
      "recordsĠ": 4774,
      "volum": 4775,
      "alryĠ": 4776,
      "practiceĠ": 4777,
      "greatestĠ": 4778,
      "pret": 4779,
      "recentĠ": 4780,
      "todayĠ": 4781,
      "miss": 4782,
      "wrot": 4783,
      "ce": 4784,
      "UKĠ": 4785,
      "vess": 4786,
      "whichĠisĠ": 4787,
      ",ĠwhileĠ": 4788,
      "sivelyĠ": 4789,
      "collegeĠ": 4790,
      "Spec": 4791,
      "maximumĠ": 4792,
      "Ram": 4793,
      "hostĠ": 4794,
      "mphĠ(Ġ": 4795,
      "inkingĠ": 4796,
      "thatĠisĠ": 4797,
      "document": 4798,
      "onĠtheirĠ": 4799,
      ".ĠSinceĠ": 4800,
      "mun": 4801,
      "lengthĠ": 4802,
      "consec": 4803,
      "movieĠ": 4804,
      "meetingĠ": 4805,
      "specificĠ": 4806,
      "royalĠ": 4807,
      "shipĠ,Ġ": 4808,
      "Sum": 4809,
      "themselvesĠ": 4810,
      "perf": 4811,
      "ofĠherĠ": 4812,
      "NH": 4813,
      "battles": 4814,
      "communic": 4815,
      "sav": 4816,
      "yanĠ": 4817,
      "eathĠ": 4818,
      "goalsĠ": 4819,
      "tin": 4820,
      "edĠasĠtheĠ": 4821,
      "couldĠnotĠ": 4822,
      "meetĠ": 4823,
      "massĠ": 4824,
      "EmpireĠ": 4825,
      "Si": 4826,
      ".ĠTheĠsongĠ": 4827,
      "world": 4828,
      "designatedĠ": 4829,
      "div": 4830,
      "(ĠtheĠ": 4831,
      "feel": 4832,
      "sufferedĠ": 4833,
      "ChinaĠ": 4834,
      "peopl": 4835,
      "Back": 4836,
      "transl": 4837,
      "sizeĠ": 4838,
      "boatĠ": 4839,
      "filmĠ'sĠ": 4840,
      "forcedĠtoĠ": 4841,
      "whichĠtheĠ": 4842,
      ".ĠManyĠ": 4843,
      "mentĠ,Ġ": 4844,
      "85Ġ": 4845,
      "Doc": 4846,
      "hard": 4847,
      "encour": 4848,
      "coast": 4849,
      "advant": 4850,
      "shortlyĠ": 4851,
      "ServiceĠ": 4852,
      "CreekĠ": 4853,
      "leavingĠ": 4854,
      "widelyĠ": 4855,
      "Civ": 4856,
      "oversĠ": 4857,
      "bloodĠ": 4858,
      "urg": 4859,
      "unitĠ": 4860,
      "seg": 4861,
      "affectedĠ": 4862,
      "PrinceĠ": 4863,
      "invasionĠ": 4864,
      "EarthĠ": 4865,
      "areĠtheĠ": 4866,
      "Camp": 4867,
      "actsĠ": 4868,
      "sust": 4869,
      ".ĠAnotherĠ": 4870,
      "5thĠ": 4871,
      "storiesĠ": 4872,
      "onĠJulyĠ": 4873,
      "igg": 4874,
      "41Ġ": 4875,
      "tel": 4876,
      "captainĠ": 4877,
      "tax": 4878,
      "Str": 4879,
      "declin": 4880,
      "navalĠ": 4881,
      "abandon": 4882,
      "recover": 4883,
      "Haw": 4884,
      "cherĠ": 4885,
      "ogueĠ": 4886,
      "Publ": 4887,
      "olderĠ": 4888,
      "tionaryĠ": 4889,
      "perialĠ": 4890,
      "fran": 4891,
      "rativeĠ": 4892,
      "iaĠandĠ": 4893,
      "EntertainmentĠ": 4894,
      "behavi": 4895,
      "FilmĠ": 4896,
      "Bor": 4897,
      "energyĠ": 4898,
      "WeĠ": 4899,
      "industri": 4900,
      "expos": 4901,
      "sn": 4902,
      "independentĠ": 4903,
      "Sun": 4904,
      "altyĠ": 4905,
      "toĠ\"Ġ": 4906,
      "conditionsĠ": 4907,
      "2013Ġ,Ġ": 4908,
      "44Ġ": 4909,
      "ogĠ": 4910,
      "mess": 4911,
      "earsĠ": 4912,
      "successfullyĠ": 4913,
      "Cra": 4914,
      "dieĠ": 4915,
      "facil": 4916,
      "subsequentĠ": 4917,
      "towardsĠtheĠ": 4918,
      "Hel": 4919,
      "laĠ": 4920,
      "Stan": 4921,
      "bon": 4922,
      "ilĠ,Ġ": 4923,
      "foreignĠ": 4924,
      "howeverĠ": 4925,
      "richĠ": 4926,
      "SmithĠ": 4927,
      "officiallyĠ": 4928,
      "peakĠ": 4929,
      "ledĠtheĠ": 4930,
      "sli": 4931,
      "batter": 4932,
      "winterĠ": 4933,
      "restor": 4934,
      "ticleĠ": 4935,
      "advanceĠ": 4936,
      "gunsĠ": 4937,
      "propertyĠ": 4938,
      "yourĠ": 4939,
      "ishopĠ": 4940,
      "quarterĠ": 4941,
      "istĠofĠ": 4942,
      "LosĠAngel": 4943,
      "NewĠZealandĠ": 4944,
      "nic": 4945,
      "problemsĠ": 4946,
      "powerfulĠ": 4947,
      "dedic": 4948,
      "managerĠ": 4949,
      "Arth": 4950,
      "complexĠ": 4951,
      "damag": 4952,
      "Lif": 4953,
      "Ri": 4954,
      "hot": 4955,
      "ephĠ": 4956,
      "ationĠ.Ċ": 4957,
      "43Ġ": 4958,
      "UĠ": 4959,
      "estivalĠ": 4960,
      "esĠwithĠ": 4961,
      "weatherĠ": 4962,
      "insul": 4963,
      "meantĠ": 4964,
      "thereĠwasĠ": 4965,
      "Me": 4966,
      "miralĠ": 4967,
      "4thĠ": 4968,
      "onĠNovemberĠ": 4969,
      "const": 4970,
      "floo": 4971,
      "squareĠ": 4972,
      "longĠ@-@Ġ": 4973,
      "MĠ@-@Ġ": 4974,
      "TestĠ": 4975,
      "Sol": 4976,
      "aheadĠ": 4977,
      "oredĠ": 4978,
      "gri": 4979,
      "sellingĠ": 4980,
      "west": 4981,
      ".ĠByĠtheĠ": 4982,
      "RockĠ": 4983,
      "ustr": 4984,
      "challeng": 4985,
      "sle": 4986,
      "pul": 4987,
      "madeĠaĠ": 4988,
      "ofĠD": 4989,
      "rot": 4990,
      "countyĠ": 4991,
      "iusĠ": 4992,
      "twel": 4993,
      "illsĠ": 4994,
      "MuseumĠ": 4995,
      "slow": 4996,
      "lack": 4997,
      "bridg": 4998,
      "schedul": 4999,
      "likeĠtheĠ": 5000,
      "approachĠ": 5001,
      "statedĠthatĠ": 5002,
      "ersĠinĠ": 5003,
      "versionĠofĠtheĠ": 5004,
      "forĠherĠ": 5005,
      "CenterĠ": 5006,
      "guitarĠ": 5007,
      "ram": 5008,
      "federalĠ": 5009,
      "10Ġ,Ġ": 5010,
      "hisĠownĠ": 5011,
      "phereĠ": 5012,
      "neu": 5013,
      "keptĠ": 5014,
      "thisĠtimeĠ": 5015,
      "makesĠ": 5016,
      "braryĠ": 5017,
      "okeĠ": 5018,
      "asĠheĠ": 5019,
      "anĠ\"Ġ": 5020,
      "CorpsĠ": 5021,
      "heavilyĠ": 5022,
      "nin": 5023,
      "mittedĠ": 5024,
      "6ĠâĢĵĠ": 5025,
      "Kh": 5026,
      "asĠaĠ\"Ġ": 5027,
      "analys": 5028,
      "companiesĠ": 5029,
      "friend": 5030,
      "wereĠnotĠ": 5031,
      "perorĠ": 5032,
      "featuredĠ": 5033,
      "benef": 5034,
      "followĠ": 5035,
      "term": 5036,
      "ulfĠ": 5037,
      "metalĠ": 5038,
      "2002Ġ": 5039,
      "includesĠ": 5040,
      "JacksonĠ": 5041,
      "ScotlandĠ": 5042,
      "techni": 5043,
      "markĠ": 5044,
      "contemporaryĠ": 5045,
      "Gal": 5046,
      "5Ġ@.@Ġ": 5047,
      "borderĠ": 5048,
      "equip": 5049,
      "adoĠ": 5050,
      "whichĠheĠ": 5051,
      ",ĠwasĠ": 5052,
      "eballĠ": 5053,
      ".ĠIfĠ": 5054,
      "ricketĠ": 5055,
      "laidĠ": 5056,
      "ontoĠ": 5057,
      "estsĠ": 5058,
      "lec": 5059,
      "opleĠ": 5060,
      "usedĠforĠ": 5061,
      "Jus": 5062,
      "describedĠasĠ": 5063,
      "thingsĠ": 5064,
      "Luc": 5065,
      "MajorĠ": 5066,
      "ingĠherĠ": 5067,
      "LiveĠ": 5068,
      "foot": 5069,
      "death": 5070,
      "darkĠ": 5071,
      "eticĠ": 5072,
      "tac": 5073,
      "Croati": 5074,
      "mineĠ": 5075,
      "ampl": 5076,
      "but": 5077,
      "danc": 5078,
      "SirĠ": 5079,
      "onĠitsĠ": 5080,
      "Colon": 5081,
      ".ĠAr": 5082,
      "phil": 5083,
      "second": 5084,
      "Whit": 5085,
      "marriageĠ": 5086,
      "puterĠ": 5087,
      "600Ġ": 5088,
      "mast": 5089,
      "ersĠ.ĠTheĠ": 5090,
      "fourĠ@-@Ġ": 5091,
      "Madonn": 5092,
      "screenĠ": 5093,
      "effectiveĠ": 5094,
      "Bat": 5095,
      "abilityĠtoĠ": 5096,
      "physicalĠ": 5097,
      "acquir": 5098,
      "executiveĠ": 5099,
      "inalĠ": 5100,
      "wingĠ": 5101,
      "qualityĠ": 5102,
      "varietyĠofĠ": 5103,
      "callĠ": 5104,
      "orĠtoĠtheĠ": 5105,
      "comĠ": 5106,
      "genĠ": 5107,
      "wound": 5108,
      "wel": 5109,
      "FoxĠ": 5110,
      "XĠ": 5111,
      "counc": 5112,
      "78Ġ": 5113,
      "resist": 5114,
      "=Ġ=ĠĊ": 5115,
      "necessaryĠ": 5116,
      "dang": 5117,
      "eroĠ": 5118,
      "64Ġ": 5119,
      "brief": 5120,
      "pilotĠ": 5121,
      "FloridaĠ": 5122,
      "Gol": 5123,
      "FortĠ": 5124,
      "formul": 5125,
      "itationĠ": 5126,
      "40": 5127,
      "%ĠofĠtheĠ": 5128,
      "enz": 5129,
      "ensityĠ": 5130,
      "basedĠonĠtheĠ": 5131,
      "lic": 5132,
      ".Ġ(Ġ": 5133,
      "centerĠ": 5134,
      "agreementĠ": 5135,
      "kgĠ": 5136,
      "usedĠinĠ": 5137,
      "trainĠ": 5138,
      "NorthernĠ": 5139,
      "mol": 5140,
      "asĠtheyĠ": 5141,
      "providedĠ": 5142,
      "tropicalĠstormĠ": 5143,
      ",ĠD": 5144,
      "Ob": 5145,
      "esĠ,ĠtheĠ": 5146,
      "promot": 5147,
      "ve": 5148,
      "tifiedĠ": 5149,
      "brokeĠ": 5150,
      "aim": 5151,
      "signĠ": 5152,
      "towardĠ": 5153,
      "15Ġ,Ġ": 5154,
      "skiĠ": 5155,
      "travel": 5156,
      "ĠWhenĠ": 5157,
      "nominatedĠ": 5158,
      "exampleĠ,Ġ": 5159,
      "returningĠ": 5160,
      "SunĠ": 5161,
      "deriv": 5162,
      "theĠmostĠ": 5163,
      "cost": 5164,
      "counter": 5165,
      "Pic": 5166,
      "7Ġ@.@Ġ": 5167,
      "\"ĠT": 5168,
      "enemyĠ": 5169,
      "inem": 5170,
      ",ĠandĠaĠ": 5171,
      "husbandĠ": 5172,
      "inĠherĠ": 5173,
      "CaptainĠ": 5174,
      "StĠ": 5175,
      "wordsĠ": 5176,
      "objec": 5177,
      "rangeĠofĠ": 5178,
      "categ": 5179,
      "negoti": 5180,
      "postĠ@-@Ġ": 5181,
      "expe": 5182,
      "Dev": 5183,
      "Ven": 5184,
      "sent": 5185,
      "engine": 5186,
      "showsĠ": 5187,
      "usualĠ": 5188,
      "chestr": 5189,
      "ClubĠ": 5190,
      "FleetĠ": 5191,
      "Holl": 5192,
      ".ĠInĠaĠ": 5193,
      "transi": 5194,
      "inationĠ": 5195,
      "onĠJuneĠ": 5196,
      "modi": 5197,
      "capitalĠ": 5198,
      "How": 5199,
      "Histor": 5200,
      "42Ġ": 5201,
      "Ġ=Ġ=ĠHistoryĠ": 5202,
      "Bob": 5203,
      "thereĠisĠ": 5204,
      "engineĠ": 5205,
      "regul": 5206,
      "cod": 5207,
      "cav": 5208,
      "ChiefĠ": 5209,
      "elim": 5210,
      "booksĠ": 5211,
      "AssociationĠ": 5212,
      "farm": 5213,
      "simp": 5214,
      "girl": 5215,
      "eterĠ": 5216,
      "'reĠ": 5217,
      ",ĠitĠ": 5218,
      "universityĠ": 5219,
      "Sar": 5220,
      "rainf": 5221,
      "earnedĠ": 5222,
      "2009Ġ,Ġ": 5223,
      "capac": 5224,
      "avoidĠ": 5225,
      "simplyĠ": 5226,
      "trueĠ": 5227,
      "offensiveĠ": 5228,
      "HallĠ": 5229,
      "resultĠofĠ": 5230,
      "educationĠ": 5231,
      "room": 5232,
      "renĠ": 5233,
      ".ĠAsĠtheĠ": 5234,
      "worthĠ": 5235,
      "9Ġ@.@Ġ": 5236,
      "turn": 5237,
      "lessĠthanĠ": 5238,
      "DVDĠ": 5239,
      "gianĠ": 5240,
      "essĠandĠ": 5241,
      "allowedĠ": 5242,
      "oudĠ": 5243,
      "ingsĠofĠ": 5244,
      "firstĠ@-@Ġ": 5245,
      "Som": 5246,
      "retain": 5247,
      "inĠ'sĠ": 5248,
      "BostonĠ": 5249,
      "manufac": 5250,
      "phi": 5251,
      "SouthernĠ": 5252,
      "inĠ(Ġ": 5253,
      "AF": 5254,
      "ockeyĠ": 5255,
      "3Ġ@,@Ġ": 5256,
      "feelĠ": 5257,
      "becomingĠ": 5258,
      "matterĠ": 5259,
      "saysĠ": 5260,
      "andĠT": 5261,
      "bey": 5262,
      "OxfordĠ": 5263,
      "assaul": 5264,
      "North": 5265,
      "sĊ": 5266,
      "stoodĠ": 5267,
      "isĠnowĠ": 5268,
      ",ĠwhichĠwasĠ": 5269,
      "contentĠ": 5270,
      "mu": 5271,
      "sĠ,ĠwhoĠ": 5272,
      "hadĠnotĠ": 5273,
      "concertĠ": 5274,
      "thu": 5275,
      "adel": 5276,
      "grand": 5277,
      "birdsĠ": 5278,
      "askĠ": 5279,
      "teredĠ": 5280,
      "ĠAc": 5281,
      "ActĠ": 5282,
      ".ĠButĠ": 5283,
      "Ġ,ĠwhoĠ": 5284,
      "stag": 5285,
      "guestĠ": 5286,
      "prominentĠ": 5287,
      "ingĠforĠ": 5288,
      "praisedĠtheĠ": 5289,
      "TourĠ": 5290,
      "LatinĠ": 5291,
      "AllĠ@-@Ġ": 5292,
      "damagedĠ": 5293,
      "oppon": 5294,
      "nit": 5295,
      "citiz": 5296,
      "thĠcenturyĠ,Ġ": 5297,
      "gent": 5298,
      "tyĠ@-@Ġ": 5299,
      "deepĠ": 5300,
      "Coll": 5301,
      "ofĠP": 5302,
      "artilleryĠ": 5303,
      "pra": 5304,
      "ricalĠ": 5305,
      "FrankĠ": 5306,
      "resc": 5307,
      "secondsĠ": 5308,
      "architec": 5309,
      "Pennsylvan": 5310,
      "Ath": 5311,
      "marriedĠ": 5312,
      "footĠ": 5313,
      "urch": 5314,
      "annelĠ": 5315,
      "ifĠtheĠ": 5316,
      "Cr": 5317,
      "tedĠtoĠtheĠ": 5318,
      "eplayĠ": 5319,
      ",ĠandĠwasĠ": 5320,
      "cen": 5321,
      "experim": 5322,
      "%ĠofĠ": 5323,
      "ooĠ": 5324,
      "portsĠ": 5325,
      "derĠofĠtheĠ": 5326,
      "ruleĠ": 5327,
      "aniĠ": 5328,
      "typeĠ": 5329,
      "currentlyĠ": 5330,
      "northeastĠ": 5331,
      "heardĠ": 5332,
      "Dre": 5333,
      "bom": 5334,
      "brig": 5335,
      "emblyĠ": 5336,
      "typicallyĠ": 5337,
      "ParliamentĠ": 5338,
      "healthĠ": 5339,
      "crip": 5340,
      "YoungĠ": 5341,
      "lem": 5342,
      "passingĠ": 5343,
      "politic": 5344,
      "allĠ@-@Ġ": 5345,
      "+Ġ": 5346,
      "Cy": 5347,
      "onc": 5348,
      "famousĠ": 5349,
      "supp": 5350,
      "shir": 5351,
      "care": 5352,
      "medicalĠ": 5353,
      "7ĠâĢĵĠ": 5354,
      "ppingĠ": 5355,
      "developĠ": 5356,
      "icientĠ": 5357,
      "150Ġ": 5358,
      "triedĠtoĠ": 5359,
      "14Ġ,Ġ": 5360,
      "nativeĠ": 5361,
      "Christm": 5362,
      "ide": 5363,
      "mention": 5364,
      "attribu": 5365,
      "esĠ,ĠbutĠ": 5366,
      "containsĠ": 5367,
      "Ã¤": 5368,
      "historianĠ": 5369,
      ".Ġ\"ĠInĠ": 5370,
      "My": 5371,
      "predic": 5372,
      "scaleĠ": 5373,
      "sĠ,ĠandĠtheĠ": 5374,
      "West": 5375,
      "symp": 5376,
      "machineĠ": 5377,
      "instruc": 5378,
      "locationĠ": 5379,
      "inghamĠ": 5380,
      "announcedĠthatĠ": 5381,
      "Ben": 5382,
      "drum": 5383,
      "referenceĠ": 5384,
      "frequentlyĠ": 5385,
      "backgroundĠ": 5386,
      "soldiersĠ": 5387,
      "singerĠ": 5388,
      "debutedĠ": 5389,
      "datedĠ": 5390,
      "egr": 5391,
      "jobĠ": 5392,
      "majorityĠ": 5393,
      "editionĠ": 5394,
      "fishĠ": 5395,
      "alismĠ": 5396,
      "andĠitsĠ": 5397,
      "severeĠ": 5398,
      "evelop": 5399,
      "BackgroundĠ": 5400,
      ".Ġ,Ġ": 5401,
      "inchesĠ(Ġ": 5402,
      "mayĠhaveĠ": 5403,
      "pap": 5404,
      "2008Ġ,Ġ": 5405,
      "stituteĠ": 5406,
      "newlyĠ": 5407,
      "toĠR": 5408,
      "clusionĠ": 5409,
      "uelĠ": 5410,
      "tureĠ,Ġ": 5411,
      "BBCĠ": 5412,
      "possiblyĠ": 5413,
      "Jon": 5414,
      ".ĠLaterĠ": 5415,
      "house": 5416,
      "expand": 5417,
      "toĠtakeĠ": 5418,
      "marineĠ": 5419,
      "allyĠ,Ġ": 5420,
      "itableĠ": 5421,
      "2016Ġ": 5422,
      "scoringĠ": 5423,
      "fastĠ": 5424,
      "andĠotherĠ": 5425,
      "collap": 5426,
      "cityĠofĠ": 5427,
      "RecordsĠ": 5428,
      "offer": 5429,
      "saidĠ,Ġ\"Ġ": 5430,
      "consecutiveĠ": 5431,
      "lizabe": 5432,
      "parall": 5433,
      "emphas": 5434,
      "DutchĠ": 5435,
      "astr": 5436,
      "mmĠ(Ġ": 5437,
      "HurricaneĠ": 5438,
      "albumĠ'sĠ": 5439,
      "formĠofĠ": 5440,
      "Vol": 5441,
      "constitu": 5442,
      "StoneĠ": 5443,
      "conserv": 5444,
      "doll": 5445,
      "adver": 5446,
      "RegimentĠ": 5447,
      "\"ĠIĠ": 5448,
      "oss": 5449,
      "Austri": 5450,
      "railwayĠ": 5451,
      "Direc": 5452,
      "ĠDuringĠtheĠ": 5453,
      "supplyĠ": 5454,
      "5ĠâĢĵĠ": 5455,
      "herselfĠ": 5456,
      "PolishĠ": 5457,
      "sixthĠ": 5458,
      "step": 5459,
      "blueĠ": 5460,
      "wouldĠnotĠ": 5461,
      "leaderĠ": 5462,
      "IĠ'mĠ": 5463,
      "Sur": 5464,
      "thatĠaĠ": 5465,
      "legĠ": 5466,
      "overĠaĠ": 5467,
      "burg": 5468,
      "settingĠ": 5469,
      "Hon": 5470,
      "roman": 5471,
      "orĠ\"Ġ": 5472,
      "bigĠ": 5473,
      "brokenĠ": 5474,
      "studentĠ": 5475,
      "Ã¨": 5476,
      "izedĠtheĠ": 5477,
      "tonĠ,Ġ": 5478,
      "BrigadeĠ": 5479,
      "Columb": 5480,
      "circul": 5481,
      "stopp": 5482,
      "edg": 5483,
      "ãĤ": 5484,
      "apol": 5485,
      "descrip": 5486,
      "seniorĠ": 5487,
      "refusedĠtoĠ": 5488,
      "edĠwithĠaĠ": 5489,
      "grewĠ": 5490,
      "attrac": 5491,
      "00": 5492,
      "alsĠandĠ": 5493,
      "inĠK": 5494,
      "BĠ@-@Ġ": 5495,
      "GreenĠ": 5496,
      "streetĠ": 5497,
      "Sil": 5498,
      "leyĠ,Ġ": 5499,
      "promp": 5500,
      "cultureĠ": 5501,
      "FootballĠ": 5502,
      "yĠwasĠ": 5503,
      "istr": 5504,
      "(ĠA": 5505,
      "SeriesĠ": 5506,
      "ofĠR": 5507,
      "ScottishĠ": 5508,
      "deep": 5509,
      "subjectĠ": 5510,
      "cell": 5511,
      "kaĠ": 5512,
      ".ĠSeveralĠ": 5513,
      "historicalĠ": 5514,
      "travelĠ": 5515,
      "intellig": 5516,
      "ficĠ": 5517,
      "sexĠ": 5518,
      "parentsĠ": 5519,
      "causeĠ": 5520,
      "driveĠ": 5521,
      "IrelandĠ": 5522,
      "atedĠinĠtheĠ": 5523,
      "ationsĠandĠ": 5524,
      "1Ġ,ĠtheĠ": 5525,
      "sisterĠ": 5526,
      "returnĠtoĠ": 5527,
      "reasonĠ": 5528,
      "tingĠtoĠ": 5529,
      "beatĠ": 5530,
      "formsĠ": 5531,
      "liĠ": 5532,
      "surround": 5533,
      "AlliedĠ": 5534,
      "yearĠ@-@ĠoldĠ": 5535,
      "chosenĠ": 5536,
      "18Ġ,Ġ": 5537,
      "CivilĠ": 5538,
      "halfĠ@-@Ġ": 5539,
      "Hear": 5540,
      "acherĠ": 5541,
      "Christi": 5542,
      "onĠMayĠ": 5543,
      ".ĠWhenĠtheĠ": 5544,
      "authorityĠ": 5545,
      "equipmentĠ": 5546,
      "HarrisonĠ": 5547,
      "venĠ": 5548,
      "requi": 5549,
      "DonĠ": 5550,
      "FantasyĠ": 5551,
      "WW": 5552,
      "loy": 5553,
      "ywoodĠ": 5554,
      "ManchesterĠ": 5555,
      "EasternĠ": 5556,
      "eĠ,ĠandĠtheĠ": 5557,
      "attach": 5558,
      "rein": 5559,
      "8Ġ@.@Ġ": 5560,
      "match": 5561,
      "colum": 5562,
      "changesĠ": 5563,
      "11Ġ,Ġ": 5564,
      "sĠ,ĠwithĠ": 5565,
      "ofĠtheseĠ": 5566,
      "musicĠvideoĠ": 5567,
      "wher": 5568,
      "landingĠ": 5569,
      "Recep": 5570,
      "wasĠbornĠ": 5571,
      "givingĠ": 5572,
      "sayingĠ": 5573,
      "MichiganĠ": 5574,
      "notĠtoĠ": 5575,
      "designedĠ": 5576,
      "PostĠ": 5577,
      "gard": 5578,
      "oughlyĠ": 5579,
      "beyondĠ": 5580,
      "distanceĠ": 5581,
      "scriptĠ": 5582,
      "similarĠtoĠ": 5583,
      "milli": 5584,
      "mission": 5585,
      "sport": 5586,
      "TomĠ": 5587,
      ".ĠTheyĠwereĠ": 5588,
      "aloneĠ": 5589,
      "billionĠ": 5590,
      "GamesĠ": 5591,
      "@-@ĠyardĠ": 5592,
      "manĠ'sĠ": 5593,
      "bound": 5594,
      "amedĠ": 5595,
      "crimin": 5596,
      "(Ġ\"Ġ": 5597,
      "16Ġ,Ġ": 5598,
      "Jam": 5599,
      "impactĠ": 5600,
      "assum": 5601,
      "@-@ĠinchĠ": 5602,
      "ricul": 5603,
      "meansĠ": 5604,
      "tionsĠandĠ": 5605,
      "contrastĠ": 5606,
      "JimĠ": 5607,
      "esĠ,ĠwhichĠ": 5608,
      "Que": 5609,
      "starsĠ": 5610,
      "societyĠ": 5611,
      "sac": 5612,
      "mic": 5613,
      "tedĠbyĠtheĠ": 5614,
      "Isra": 5615,
      "urtherĠ": 5616,
      "Mass": 5617,
      "Vill": 5618,
      "town": 5619,
      "9ĠâĢĵĠ": 5620,
      "Fam": 5621,
      "Ġ=Ġ=ĠHistoryĠ=Ġ=Ċ": 5622,
      "usĠandĠ": 5623,
      "budg": 5624,
      "clo": 5625,
      "duringĠaĠ": 5626,
      "gain": 5627,
      "assign": 5628,
      "atedĠinĠ": 5629,
      "lyingĠ": 5630,
      "2014Ġ,Ġ": 5631,
      "merg": 5632,
      "BattleĠ": 5633,
      "ValleyĠ": 5634,
      "civilĠ": 5635,
      "kmĠ/ĠhĠ)Ġ": 5636,
      "lookingĠ": 5637,
      "RepublicĠ": 5638,
      "Jes": 5639,
      "arc": 5640,
      "oppositionĠ": 5641,
      "leftĠtheĠ": 5642,
      "OperationĠ": 5643,
      "performĠ": 5644,
      "meet": 5645,
      "kl": 5646,
      ".ĠThereĠareĠ": 5647,
      "12Ġ,Ġ": 5648,
      "championshipĠ": 5649,
      "Law": 5650,
      "red": 5651,
      "Star": 5652,
      "victor": 5653,
      "loadĠ": 5654,
      "perman": 5655,
      "judg": 5656,
      "XĠ@-@Ġ": 5657,
      "ampionĠ": 5658,
      "ĠAlthoughĠ": 5659,
      "forĠanĠ": 5660,
      "edomĠ": 5661,
      "regist": 5662,
      "urbanĠ": 5663,
      "ansĠandĠ": 5664,
      "timeĠofĠ": 5665,
      "officialsĠ": 5666,
      "becauseĠtheĠ": 5667,
      "ofĠK": 5668,
      "horseĠ": 5669,
      "amountĠofĠ": 5670,
      "centreĠ": 5671,
      "yĠ\"Ġ": 5672,
      "1Ġ@,@Ġ000Ġ": 5673,
      "threatĠ": 5674,
      "extensiveĠ": 5675,
      "oneĠofĠtheĠmostĠ": 5676,
      "workĠ,Ġ": 5677,
      "negativeĠ": 5678,
      "JosephĠ": 5679,
      "evacu": 5680,
      "tsĠ(Ġ": 5681,
      "animalsĠ": 5682,
      "tomĠ": 5683,
      "SpainĠ": 5684,
      "TropicalĠ": 5685,
      "inĠD": 5686,
      "resultsĠ": 5687,
      "ungĠ": 5688,
      "diam": 5689,
      "nationĠ": 5690,
      "Jud": 5691,
      "antineĠ": 5692,
      "defend": 5693,
      "AfricaĠ": 5694,
      "intersec": 5695,
      "receiveĠ": 5696,
      "Mul": 5697,
      "eousĠ": 5698,
      "esĠ'Ġ": 5699,
      "inĠ190": 5700,
      "Comman": 5701,
      "17Ġ,Ġ": 5702,
      "itĠ\"Ġ": 5703,
      "idlyĠ": 5704,
      "AvenueĠ": 5705,
      "reyĠ": 5706,
      "restric": 5707,
      "ledg": 5708,
      ")Ġ=Ċ": 5709,
      "CatholicĠ": 5710,
      "Wom": 5711,
      "adj": 5712,
      "AmericansĠ": 5713,
      "Blu": 5714,
      "becomesĠ": 5715,
      "asĠwellĠasĠtheĠ": 5716,
      "hasĠalsoĠ": 5717,
      "writersĠ": 5718,
      "rain": 5719,
      "throughĠaĠ": 5720,
      "will": 5721,
      "adedĠ": 5722,
      "deploy": 5723,
      "dram": 5724,
      "Black": 5725,
      "ĠFollow": 5726,
      "BC": 5727,
      "ori": 5728,
      "atom": 5729,
      "execu": 5730,
      "ardi": 5731,
      "ilianĠ": 5732,
      "wasĠbuiltĠ": 5733,
      "patter": 5734,
      "5Ġ,ĠtheĠ": 5735,
      "cut": 5736,
      ")Ġ,ĠaĠ": 5737,
      "CommissionĠ": 5738,
      "slowĠ": 5739,
      "hadĠtheĠ": 5740,
      "2007Ġ,Ġ": 5741,
      "8ĠâĢĵĠ": 5742,
      "draftĠ": 5743,
      "bin": 5744,
      "spon": 5745,
      "ĠAsĠ": 5746,
      "specific": 5747,
      "donĠ'tĠ": 5748,
      "alongsideĠ": 5749,
      "capit": 5750,
      "battalionĠ": 5751,
      "purchas": 5752,
      "publishedĠinĠ": 5753,
      "Hum": 5754,
      "esĠonĠ": 5755,
      "situationĠ": 5756,
      "gros": 5757,
      "outsideĠ": 5758,
      "nuclearĠ": 5759,
      "killĠ": 5760,
      "isi": 5761,
      "writeĠ": 5762,
      "residentsĠ": 5763,
      "andĠD": 5764,
      "Wel": 5765,
      "correc": 5766,
      "USĠ$Ġ": 5767,
      "problemĠ": 5768,
      "4Ġ,ĠtheĠ": 5769,
      "Gil": 5770,
      "Far": 5771,
      "cmĠ(Ġ": 5772,
      "pay": 5773,
      ".ĠThisĠwasĠ": 5774,
      "tryingĠtoĠ": 5775,
      ",ĠbutĠtheĠ": 5776,
      "northwestĠ": 5777,
      "exceptĠ": 5778,
      "ParisĠ": 5779,
      "Gard": 5780,
      "styl": 5781,
      "basisĠ": 5782,
      "convinc": 5783,
      "bsĠ": 5784,
      "brieflyĠ": 5785,
      "handsĠ": 5786,
      "agn": 5787,
      "foundĠinĠ": 5788,
      "aun": 5789,
      "recentlyĠ": 5790,
      "whereĠitĠ": 5791,
      "Swed": 5792,
      "tournamentĠ": 5793,
      "toĠplayĠ": 5794,
      "BridgeĠ": 5795,
      "Boo": 5796,
      "Rock": 5797,
      "seriousĠ": 5798,
      "figureĠ": 5799,
      "bad": 5800,
      "mindĠ": 5801,
      "Mod": 5802,
      "UK": 5803,
      "gn": 5804,
      "summ": 5805,
      "squadronĠ": 5806,
      "managementĠ": 5807,
      "focusĠ": 5808,
      "NewĠYorkĠCityĠ": 5809,
      "stayĠ": 5810,
      "aid": 5811,
      "surren": 5812,
      "difficultĠ": 5813,
      "applic": 5814,
      "expansionĠ": 5815,
      "ChristmasĠ": 5816,
      "Cub": 5817,
      "13Ġ,Ġ": 5818,
      "Op": 5819,
      "asĠpartĠofĠ": 5820,
      "soundtrackĠ": 5821,
      "norĠ": 5822,
      "ideasĠ": 5823,
      "yearsĠofĠ": 5824,
      "reserv": 5825,
      "formationĠ": 5826,
      "songĠ\"Ġ": 5827,
      "areaĠofĠ": 5828,
      "atherĠ": 5829,
      "toĠbeĠaĠ": 5830,
      "Win": 5831,
      "producedĠbyĠ": 5832,
      "IrishĠ": 5833,
      "twelveĠ": 5834,
      "lad": 5835,
      "eanwhil": 5836,
      "BillĠ": 5837,
      "Pu": 5838,
      "foughtĠ": 5839,
      "noĠlongerĠ": 5840,
      "qĠ": 5841,
      "Cas": 5842,
      "consol": 5843,
      "CareyĠ": 5844,
      "securityĠ": 5845,
      "WĠ": 5846,
      "3Ġ,ĠtheĠ": 5847,
      "@-@ĠbasedĠ": 5848,
      "manufactur": 5849,
      "Lab": 5850,
      "priseĠ": 5851,
      "namĠ": 5852,
      "seatĠ": 5853,
      "villageĠ": 5854,
      "atis": 5855,
      "olfĠ": 5856,
      "premeĠ": 5857,
      "filmĠ,Ġ": 5858,
      "adelphi": 5859,
      "76Ġ": 5860,
      "LineĠ": 5861,
      "natureĠ": 5862,
      "tap": 5863,
      "20Ġ,Ġ": 5864,
      "erlyĠ": 5865,
      "essionsĠ": 5866,
      "trialĠ": 5867,
      "VictoriaĠ": 5868,
      "Rhod": 5869,
      "Cur": 5870,
      "spr": 5871,
      "enteredĠtheĠ": 5872,
      "sexualĠ": 5873,
      "HĠ": 5874,
      "ival": 5875,
      "chargeĠ": 5876,
      "watch": 5877,
      "vonĠ": 5878,
      "teach": 5879,
      "fellowĠ": 5880,
      "episodeĠ,Ġ": 5881,
      "seriesĠ,Ġ": 5882,
      "officerĠ": 5883,
      "wereĠalsoĠ": 5884,
      "Elizabe": 5885,
      "anĠin": 5886,
      ".ĠBecaus": 5887,
      "Colleg": 5888,
      "bandĠ'sĠ": 5889,
      "Spr": 5890,
      "quarter": 5891,
      "StormĠ": 5892,
      "bedĠ": 5893,
      "growingĠ": 5894,
      "dsĠ,Ġ": 5895,
      "commonlyĠ": 5896,
      "rorĠ": 5897,
      "caughtĠ": 5898,
      "casual": 5899,
      "franch": 5900,
      "ham": 5901,
      ".ĠMar": 5902,
      "Ass": 5903,
      "7thĠ": 5904,
      "explor": 5905,
      "Bran": 5906,
      "HomeĠ": 5907,
      "ranceĠ": 5908,
      "Juli": 5909,
      "ĠThereĠ": 5910,
      "recall": 5911,
      "ardingĠ": 5912,
      "2Ġ,ĠtheĠ": 5913,
      "Tro": 5914,
      "lesĠ,Ġ": 5915,
      "andĠisĠ": 5916,
      "Dep": 5917,
      "ownedĠ": 5918,
      "practic": 5919,
      "UnitedĠStatesĠ,Ġ": 5920,
      "179": 5921,
      "Ottom": 5922,
      ":Ġ00Ġ": 5923,
      "inningsĠ": 5924,
      "theyĠhadĠ": 5925,
      "holdsĠ": 5926,
      "odsĠ": 5927,
      "enterĠ": 5928,
      "Brad": 5929,
      "ikeĠ": 5930,
      "Mont": 5931,
      "ettĠ": 5932,
      "suchĠaĠ": 5933,
      "injuryĠ": 5934,
      "measur": 5935,
      "engeĠ": 5936,
      "acĠ": 5937,
      "unknownĠ": 5938,
      "protectedĠ": 5939,
      "rainfallĠ": 5940,
      "inĠSeptemberĠ": 5941,
      "endĠtheĠ": 5942,
      "vocalsĠ": 5943,
      "wr": 5944,
      "artmentĠ": 5945,
      "bod": 5946,
      "riveĠ": 5947,
      "spreadĠ": 5948,
      "jus": 5949,
      "mist": 5950,
      "tol": 5951,
      "ittingĠ": 5952,
      "prote": 5953,
      "girlĠ": 5954,
      "JewishĠ": 5955,
      "gasĠ": 5956,
      "divis": 5957,
      "wentĠonĠtoĠ": 5958,
      "ais": 5959,
      "mob": 5960,
      "heĠisĠ": 5961,
      "someĠofĠ": 5962,
      "mondĠ": 5963,
      "aylorĠ": 5964,
      "connec": 5965,
      "Philadelphi": 5966,
      "waveĠ": 5967,
      "disp": 5968,
      "equi": 5969,
      "connectedĠ": 5970,
      "onaĠ": 5971,
      "eneĠ": 5972,
      "TechĠ": 5973,
      "OceanĠ": 5974,
      "MeĠ": 5975,
      "rar": 5976,
      "KoreanĠ": 5977,
      "ero": 5978,
      "usedĠtheĠ": 5979,
      "versi": 5980,
      "beginsĠ": 5981,
      "domes": 5982,
      "featuringĠ": 5983,
      "Lar": 5984,
      "6thĠ": 5985,
      "sequenceĠ": 5986,
      "forĠtheĠfirstĠtimeĠ": 5987,
      "steadĠ": 5988,
      "planetĠ": 5989,
      "Rog": 5990,
      "findsĠ": 5991,
      "periodĠofĠ": 5992,
      "umpĠ": 5993,
      "elimin": 5994,
      "800Ġ": 5995,
      "towerĠ": 5996,
      "acceptedĠ": 5997,
      "madeĠtheĠ": 5998,
      "intendedĠtoĠ": 5999,
      "RepublicanĠ": 6000,
      "worldwideĠ": 6001,
      "veĠtheĠ": 6002,
      "hĠ,Ġ": 6003,
      "wantedĠ": 6004,
      "badĠ": 6005,
      "thor": 6006,
      "specim": 6007,
      "simul": 6008,
      "ulp": 6009,
      "ingĠtheirĠ": 6010,
      "usingĠtheĠ": 6011,
      "entirelyĠ": 6012,
      "althoughĠtheĠ": 6013,
      "ancientĠ": 6014,
      "normalĠ": 6015,
      "ju": 6016,
      "are": 6017,
      "academ": 6018,
      "hydro": 6019,
      "tleĠ": 6020,
      "arrest": 6021,
      "OnĠ": 6022,
      "atmos": 6023,
      "56Ġ": 6024,
      "culturalĠ": 6025,
      "campĠ": 6026,
      "LaĠ": 6027,
      "birdĠ": 6028,
      "jun": 6029,
      "otyp": 6030,
      "tracksĠ": 6031,
      "resultedĠ": 6032,
      "occurredĠ": 6033,
      "0Ġ,ĠtheĠ": 6034,
      "stay": 6035,
      "abyĠ": 6036,
      "Tom": 6037,
      "floodingĠ": 6038,
      "Mu": 6039,
      "scap": 6040,
      "succeed": 6041,
      "demonstr": 6042,
      "19Ġ,Ġ": 6043,
      "Ġ=Ġ=ĠRecep": 6044,
      "180": 6045,
      "efulĠ": 6046,
      "wed": 6047,
      "crossĠ": 6048,
      "Ġ=Ġ=ĠĊ": 6049,
      "reachĠ": 6050,
      "appoint": 6051,
      "cit": 6052,
      "mmĠ": 6053,
      "inĠOctoberĠ": 6054,
      "mentĠofĠtheĠ": 6055,
      "whoĠwereĠ": 6056,
      "key": 6057,
      "engin": 6058,
      "scenesĠ": 6059,
      "billĠ": 6060,
      ".C": 6061,
      "oz": 6062,
      "brownĠ": 6063,
      "shipĠwasĠ": 6064,
      "whereĠtheyĠ": 6065,
      "illyĠ": 6066,
      "pack": 6067,
      "ynĠ": 6068,
      "flagĠ": 6069,
      "whe": 6070,
      "incol": 6071,
      "Mem": 6072,
      "Ġ=Ġ=ĠBackgroundĠ": 6073,
      "gleĠ": 6074,
      "rebel": 6075,
      "BoardĠ": 6076,
      "NoĠ": 6077,
      "inĠJanuaryĠ": 6078,
      "diedĠinĠ": 6079,
      "existingĠ": 6080,
      "playsĠ": 6081,
      "66Ġ": 6082,
      "tookĠtheĠ": 6083,
      "pas": 6084,
      "wear": 6085,
      "managedĠtoĠ": 6086,
      "Ohi": 6087,
      "toĠitsĠ": 6088,
      "entsĠ,Ġ": 6089,
      "orĠofĠtheĠ": 6090,
      "andĠ@-@Ġ": 6091,
      "defensiveĠ": 6092,
      "PlayStationĠ": 6093,
      "coreĠ": 6094,
      "ectiveĠ": 6095,
      "âĢĶĠtheĠ": 6096,
      "mut": 6097,
      "essesĠ": 6098,
      "servingĠ": 6099,
      "CommitteeĠ": 6100,
      "51Ġ": 6101,
      "choseĠ": 6102,
      "hapsĠ": 6103,
      "downĠtheĠ": 6104,
      "inĠtheĠearlyĠ": 6105,
      "gust": 6106,
      "vel": 6107,
      "andĠthenĠ": 6108,
      "54Ġ": 6109,
      "wereĠtheĠ": 6110,
      "greenĠ": 6111,
      ";ĠthisĠ": 6112,
      "annaĠ": 6113,
      "ThisĠ": 6114,
      "hisĠfatherĠ": 6115,
      "igĠ": 6116,
      "quiteĠ": 6117,
      ".ĠEachĠ": 6118,
      ".Ġ\"ĠHeĠ": 6119,
      "criticismĠ": 6120,
      "territoryĠ": 6121,
      "dy": 6122,
      "Hug": 6123,
      "thickĠ": 6124,
      "guardĠ": 6125,
      "music": 6126,
      "invest": 6127,
      "\"Ġ,ĠwhichĠ": 6128,
      "gainĠ": 6129,
      "onĠAprilĠ": 6130,
      "twiceĠ": 6131,
      "reve": 6132,
      "52Ġ": 6133,
      "eĠ.Ċ": 6134,
      "flyingĠ": 6135,
      "progres": 6136,
      "Bir": 6137,
      "AirĠForceĠ": 6138,
      "ont": 6139,
      "defenseĠ": 6140,
      "screen": 6141,
      "thĠ@-@ĠcenturyĠ": 6142,
      "eĠinĠ": 6143,
      "calledĠ\"Ġ": 6144,
      "organizationĠ": 6145,
      "ersonĠ": 6146,
      "completedĠ": 6147,
      "Francisc": 6148,
      "Braz": 6149,
      "bun": 6150,
      "naĠ": 6151,
      "repl": 6152,
      "budgetĠ": 6153,
      "MiddleĠ": 6154,
      "fyĠ": 6155,
      "areĠnotĠ": 6156,
      "dial": 6157,
      ",ĠtheyĠ": 6158,
      ")ĠofĠ": 6159,
      "fictionĠ": 6160,
      "careĠ": 6161,
      "guil": 6162,
      "offeredĠ": 6163,
      "reignĠ": 6164,
      "&ĠB": 6165,
      "ingĠwithĠ": 6166,
      ".ĠTheĠfilmĠ": 6167,
      "1999Ġ": 6168,
      "countriesĠ": 6169,
      "nalĠ": 6170,
      "obtain": 6171,
      "Ander": 6172,
      "ancyĠ": 6173,
      "becomeĠaĠ": 6174,
      "(ĠS": 6175,
      "Bul": 6176,
      "intensi": 6177,
      "axĠ": 6178,
      "closelyĠ": 6179,
      "characteris": 6180,
      "ropol": 6181,
      "familiesĠ": 6182,
      "cab": 6183,
      "IĠ,Ġ": 6184,
      "ksĠ,Ġ": 6185,
      "tileĠ": 6186,
      "ĠAn": 6187,
      "seĠ,Ġ": 6188,
      "yerĠ": 6189,
      "fix": 6190,
      "Ash": 6191,
      "regim": 6192,
      "speechĠ": 6193,
      "Gri": 6194,
      "Por": 6195,
      "treeĠ": 6196,
      "mig": 6197,
      "enteredĠ": 6198,
      "Const": 6199,
      "thereforeĠ": 6200,
      "attacksĠ": 6201,
      "retre": 6202,
      "riĠ": 6203,
      "conflictĠ": 6204,
      "searchĠ": 6205,
      "assignedĠ": 6206,
      "âĪ": 6207,
      "murderĠ": 6208,
      ",ĠsheĠ": 6209,
      "onĠMarchĠ": 6210,
      "theoryĠ": 6211,
      "BAĠ": 6212,
      "incid": 6213,
      "ageĠofĠtheĠ": 6214,
      "fuelĠ": 6215,
      "ronic": 6216,
      "sportsĠ": 6217,
      "organĠ": 6218,
      "ĠAtĠtheĠ": 6219,
      "Def": 6220,
      ",ĠorĠ": 6221,
      "toĠdoĠ": 6222,
      "AlexanderĠ": 6223,
      "tellsĠ": 6224,
      "Person": 6225,
      "Äģ": 6226,
      "chair": 6227,
      "slav": 6228,
      "LittleĠ": 6229,
      "infantryĠ": 6230,
      "iteĠtheĠ": 6231,
      "poss": 6232,
      "skyĠ": 6233,
      "didnĠ'tĠ": 6234,
      "contactĠ": 6235,
      "interview": 6236,
      "appearsĠ": 6237,
      "TownĠ": 6238,
      "tific": 6239,
      "grav": 6240,
      "stitut": 6241,
      "NewĠJer": 6242,
      "reput": 6243,
      "philos": 6244,
      "anityĠ": 6245,
      "onĠDecemberĠ": 6246,
      "inĠMayĠ": 6247,
      "doingĠ": 6248,
      "protectĠ": 6249,
      "destroyedĠ": 6250,
      "SaintĠ": 6251,
      "unionĠ": 6252,
      "theor": 6253,
      "erationĠ": 6254,
      "(ĠC": 6255,
      "SocietyĠ": 6256,
      "sĠofĠaĠ": 6257,
      "speedĠ": 6258,
      "ningĠtheĠ": 6259,
      "ryĠ,Ġ": 6260,
      "poemĠ": 6261,
      "finishĠ": 6262,
      "carryĠ": 6263,
      ".ĠAm": 6264,
      "secondaryĠ": 6265,
      "antaĠ": 6266,
      "vanĠ": 6267,
      "ologistĠ": 6268,
      "77Ġ": 6269,
      "oh": 6270,
      "displayĠ": 6271,
      "Radi": 6272,
      "Ul": 6273,
      "conditionĠ": 6274,
      "Elec": 6275,
      "less": 6276,
      "arilyĠ": 6277,
      "otaĠ": 6278,
      "garianĠ": 6279,
      "thatĠitĠwasĠ": 6280,
      "compil": 6281,
      "rapidlyĠ": 6282,
      "Ã¸": 6283,
      "distingu": 6284,
      "DoctorĠ": 6285,
      "sĠ)Ġ": 6286,
      "insonĠ": 6287,
      "alĠtoĠ": 6288,
      "elledĠ": 6289,
      "newspaperĠ": 6290,
      "57Ġ": 6291,
      "emanĠ": 6292,
      "nothingĠ": 6293,
      "figuresĠ": 6294,
      "termsĠ": 6295,
      "headquartersĠ": 6296,
      "request": 6297,
      "9Ġ,ĠtheĠ": 6298,
      "desc": 6299,
      "beginĠ": 6300,
      "tex": 6301,
      "satis": 6302,
      "inĠAugustĠ": 6303,
      "recru": 6304,
      "Champion": 6305,
      "Beat": 6306,
      "30Ġ,Ġ": 6307,
      "lor": 6308,
      "wrest": 6309,
      "analysisĠ": 6310,
      "edĠ,ĠbutĠ": 6311,
      "reachedĠtheĠ": 6312,
      "halfĠofĠtheĠ": 6313,
      "websiteĠ": 6314,
      "shareĠ": 6315,
      "decor": 6316,
      "LieutenantĠ": 6317,
      "Roman": 6318,
      ".ĠCh": 6319,
      "ingĠanĠ": 6320,
      "electricĠ": 6321,
      "episodeĠofĠ": 6322,
      "Rod": 6323,
      "push": 6324,
      "singlesĠ": 6325,
      "roughĠ": 6326,
      "ersĠ,ĠandĠ": 6327,
      "volun": 6328,
      "computerĠ": 6329,
      "surg": 6330,
      "continuesĠ": 6331,
      "birthĠ": 6332,
      "WorldĠWarĠIIĠ": 6333,
      "incidentĠ": 6334,
      "behindĠtheĠ": 6335,
      "positiveĠreview": 6336,
      "Fer": 6337,
      "Mos": 6338,
      "\"ĠtoĠ": 6339,
      "SongĠ": 6340,
      "atedĠbyĠtheĠ": 6341,
      "escor": 6342,
      "steinĠ": 6343,
      "\"ĠbyĠ": 6344,
      "inĠDecemberĠ": 6345,
      "amiĠ": 6346,
      "Mah": 6347,
      "Vid": 6348,
      "aud": 6349,
      "element": 6350,
      "outĠtheĠ": 6351,
      "turnsĠ": 6352,
      "stationsĠ": 6353,
      "merch": 6354,
      "rhy": 6355,
      "Kenn": 6356,
      "likeĠaĠ": 6357,
      "getsĠ": 6358,
      "Mary": 6359,
      "genusĠ": 6360,
      "Tem": 6361,
      "performedĠ": 6362,
      "agreedĠtoĠ": 6363,
      "ĠAfterĠtheĠ": 6364,
      "idi": 6365,
      "inĠNovemberĠ": 6366,
      "deal": 6367,
      "animalĠ": 6368,
      "followedĠbyĠ": 6369,
      "HarryĠ": 6370,
      "uniqueĠ": 6371,
      "TCĠ": 6372,
      "etweenĠ": 6373,
      "destruc": 6374,
      "egg": 6375,
      "digitalĠ": 6376,
      "owsĠ": 6377,
      "adaĠ": 6378,
      "Wall": 6379,
      "by": 6380,
      "shallĠ": 6381,
      "JoeĠ": 6382,
      "remainsĠ": 6383,
      "@-@ĠyearĠ@-@ĠoldĠ": 6384,
      "GulfĠ": 6385,
      "trou": 6386,
      "onĠJanuaryĠ": 6387,
      "SystemĠ": 6388,
      "torpedoĠ": 6389,
      "PennsylvaniaĠ": 6390,
      "RailwayĠ": 6391,
      "53Ġ": 6392,
      ".ĠMc": 6393,
      "wasĠinĠ": 6394,
      "CongressĠ": 6395,
      "nĠ'sĠ": 6396,
      "awareĠ": 6397,
      "eyonc": 6398,
      "silverĠ": 6399,
      ")Ġ,ĠwhichĠ": 6400,
      "listedĠ": 6401,
      "cong": 6402,
      "notableĠ": 6403,
      "theĠnextĠ": 6404,
      "etro": 6405,
      "2015Ġ,Ġ": 6406,
      "isol": 6407,
      "MikeĠ": 6408,
      "neighbor": 6409,
      "may": 6410,
      "SecretaryĠ": 6411,
      ".ĠThoughĠ": 6412,
      "manyĠofĠtheĠ": 6413,
      "videoĠgameĠ": 6414,
      "destro": 6415,
      "MinisterĠ": 6416,
      "ĠTheĠfirstĠ": 6417,
      "cro": 6418,
      "odi": 6419,
      "issĠ": 6420,
      "twoĠyearsĠ": 6421,
      "BondĠ": 6422,
      "athe": 6423,
      "fal": 6424,
      "tiĠ": 6425,
      "edĠ,Ġ\"Ġ": 6426,
      "themeĠ": 6427,
      "crew": 6428,
      "tsĠwereĠ": 6429,
      "9thĠ": 6430,
      "TimeĠ": 6431,
      "vocalĠ": 6432,
      "@-@ĠdayĠ": 6433,
      "wasĠun": 6434,
      "raftĠ": 6435,
      "appearedĠinĠ": 6436,
      "adapt": 6437,
      "airsĠ": 6438,
      "claimedĠ": 6439,
      "lyricsĠ": 6440,
      "seasonsĠ": 6441,
      "96Ġ": 6442,
      "coach": 6443,
      "allowingĠ": 6444,
      "SuperĠ": 6445,
      "hur": 6446,
      "targetĠ": 6447,
      "@-@Ġp": 6448,
      "onsĠ,Ġ": 6449,
      "lowĠ@-@Ġ": 6450,
      "tell": 6451,
      "inĠTheĠ": 6452,
      "Angl": 6453,
      "ScottĠ": 6454,
      "advertis": 6455,
      "prefer": 6456,
      "youngerĠ": 6457,
      "6Ġ,ĠtheĠ": 6458,
      "swi": 6459,
      "ersĠinĠtheĠ": 6460,
      "Broad": 6461,
      "occasion": 6462,
      "8Ġ,ĠtheĠ": 6463,
      "1998Ġ": 6464,
      "articleĠ": 6465,
      "eshĠ": 6466,
      "temporaryĠ": 6467,
      "Den": 6468,
      "matchesĠ": 6469,
      "opportunityĠ": 6470,
      "dataĠ": 6471,
      "nestĠ": 6472,
      "eĠ,ĠwithĠ": 6473,
      "Harv": 6474,
      "gameplayĠ": 6475,
      "entedĠ": 6476,
      "criticĠ": 6477,
      "essorĠ": 6478,
      "50": 6479,
      "ofĠN": 6480,
      "accur": 6481,
      "comicĠ": 6482,
      "comedyĠ": 6483,
      "Park": 6484,
      "transportĠ": 6485,
      "ferĠ": 6486,
      "eau": 6487,
      "StephenĠ": 6488,
      "GovernmentĠ": 6489,
      "bandsĠ": 6490,
      "limit": 6491,
      "ColonelĠ": 6492,
      "requiredĠ": 6493,
      "anth": 6494,
      "passesĠ": 6495,
      "cyĠ": 6496,
      "ethĠ": 6497,
      "72Ġ": 6498,
      "atĠ,Ġ": 6499,
      "forestĠ": 6500,
      "evi": 6501,
      "7Ġ,ĠtheĠ": 6502,
      "Bol": 6503,
      "rush": 6504,
      "everthel": 6505,
      "itaĠ": 6506,
      "ationĠtoĠ": 6507,
      "spok": 6508,
      "briefĠ": 6509,
      "leagu": 6510,
      "ĠAr": 6511,
      "ingĠfromĠ": 6512,
      "elessĠ": 6513,
      "BlueĠ": 6514,
      "significantlyĠ": 6515,
      "OlympicĠ": 6516,
      "custom": 6517,
      "UĠ@-@Ġ": 6518,
      "creatingĠ": 6519,
      "administrationĠ": 6520,
      "inĠAprilĠ": 6521,
      "thatĠwouldĠ": 6522,
      "Sul": 6523,
      "cellĠ": 6524,
      "programm": 6525,
      "Ha": 6526,
      "spar": 6527,
      "Indu": 6528,
      "ourneyĠ": 6529,
      "Philipp": 6530,
      "activitiesĠ": 6531,
      "attr": 6532,
      "seventhĠ": 6533,
      "SB": 6534,
      "plantsĠ": 6535,
      "inĠearlyĠ": 6536,
      "PrimeĠ": 6537,
      "lu": 6538,
      "ectingĠ": 6539,
      "flowĠ": 6540,
      "#Ġ": 6541,
      "firmĠ": 6542,
      "phyĠ": 6543,
      "Ep": 6544,
      "Der": 6545,
      "oesĠ": 6546,
      "isĠ\"Ġ": 6547,
      "sculp": 6548,
      "poll": 6549,
      "nĠandĠ": 6550,
      "1ĠandĠ": 6551,
      "degre": 6552,
      "expeditionĠ": 6553,
      "bankĠ": 6554,
      "itanĠ": 6555,
      "increasinglyĠ": 6556,
      "soloĠ": 6557,
      "splitĠ": 6558,
      "CarolinaĠ": 6559,
      "Pres": 6560,
      "ĴĠ": 6561,
      "tionĠtoĠ": 6562,
      "Av": 6563,
      "Cul": 6564,
      "boyĠ": 6565,
      "62Ġ": 6566,
      "eck": 6567,
      "@-@ĠtoĠ@-@Ġ": 6568,
      "datesĠ": 6569,
      "winĠtheĠ": 6570,
      "forĠBestĠ": 6571,
      "inĠJulyĠ": 6572,
      "intensityĠ": 6573,
      "individualsĠ": 6574,
      "elementĠ": 6575,
      "tledĠ": 6576,
      "thatĠhisĠ": 6577,
      "Theat": 6578,
      "gainedĠ": 6579,
      "terĠ@-@Ġ": 6580,
      "joinedĠ": 6581,
      "occurĠ": 6582,
      "kmĠ(Ġ": 6583,
      "yst": 6584,
      "rejectedĠ": 6585,
      "issuesĠ": 6586,
      "Boy": 6587,
      "droppedĠ": 6588,
      "growthĠ": 6589,
      "doub": 6590,
      "tren": 6591,
      "includedĠtheĠ": 6592,
      "reactionĠ": 6593,
      "includingĠaĠ": 6594,
      "clear": 6595,
      "usĠofĠ": 6596,
      "afterĠhisĠ": 6597,
      "Offic": 6598,
      "Tu": 6599,
      "windsĠofĠ": 6600,
      "mayĠhaveĠbeenĠ": 6601,
      "21Ġ,Ġ": 6602,
      "=Ġ=Ġ=ĠĊ": 6603,
      "aiss": 6604,
      "cricketĠ": 6605,
      "inĠwhichĠtheĠ": 6606,
      "member": 6607,
      "ocksĠ": 6608,
      "makeĠtheĠ": 6609,
      "consistedĠofĠ": 6610,
      "ateĠandĠ": 6611,
      "boy": 6612,
      "guid": 6613,
      "iverpoolĠ": 6614,
      "Green": 6615,
      "schem": 6616,
      "toĠherĠ": 6617,
      ".ĠAlthoughĠtheĠ": 6618,
      "TV": 6619,
      "theĠfollowingĠ": 6620,
      "southeastĠ": 6621,
      "agricul": 6622,
      "gradeĠ": 6623,
      "policyĠ": 6624,
      "Tal": 6625,
      "NorwayĠ": 6626,
      "forcedĠ": 6627,
      "onĠherĠ": 6628,
      "rob": 6629,
      "proposedĠ": 6630,
      "nel": 6631,
      "ouredĠ": 6632,
      "heightĠ": 6633,
      "warĠ,Ġ": 6634,
      "Lew": 6635,
      "ariĠ": 6636,
      "58Ġ": 6637,
      "asĠpartĠofĠtheĠ": 6638,
      "followedĠ": 6639,
      "edĠforĠaĠ": 6640,
      "authorĠ": 6641,
      "Hill": 6642,
      "useĠtheĠ": 6643,
      "goingĠtoĠ": 6644,
      "CoastĠ": 6645,
      "non": 6646,
      "straightĠ": 6647,
      "LosĠAngelesĠ": 6648,
      "evelopmentĠ": 6649,
      "roughlyĠ": 6650,
      "dredĠ": 6651,
      "busĠ": 6652,
      "ofĠanĠ": 6653,
      "kilometresĠ(Ġ": 6654,
      "Naz": 6655,
      "orchestr": 6656,
      "osĠ,Ġ": 6657,
      "block": 6658,
      "NorthĠAmericaĠ": 6659,
      "Nintend": 6660,
      "Sel": 6661,
      "prevent": 6662,
      "inĠMarchĠ": 6663,
      "19thĠcenturyĠ": 6664,
      "Frank": 6665,
      "Conserv": 6666,
      "WalesĠ": 6667,
      "enh": 6668,
      "setĠofĠ": 6669,
      "servicesĠ": 6670,
      "surroundingĠ": 6671,
      "returnedĠtoĠtheĠ": 6672,
      "DemocraticĠ": 6673,
      "87Ġ": 6674,
      "believeĠ": 6675,
      "numbersĠ": 6676,
      "rearĠ": 6677,
      "olĠ,Ġ": 6678,
      "AĠ)Ġ": 6679,
      "requestĠ": 6680,
      "Rid": 6681,
      "junc": 6682,
      "tarĠ": 6683,
      "esh": 6684,
      "offerĠ": 6685,
      ".ĠWithĠtheĠ": 6686,
      "67Ġ": 6687,
      ",ĠincludingĠ": 6688,
      "assistĠ": 6689,
      "knewĠ": 6690,
      "muchĠofĠtheĠ": 6691,
      "250Ġ": 6692,
      "credi": 6693,
      "team": 6694,
      "closedĠ": 6695,
      "peakedĠatĠnumberĠ": 6696,
      "ezĠ": 6697,
      "districtĠ": 6698,
      "dramaĠ": 6699,
      "addingĠ": 6700,
      "eĠ,ĠheĠ": 6701,
      "box": 6702,
      "NightĠ": 6703,
      "flyĠ": 6704,
      "\"ĠinĠ": 6705,
      "substanti": 6706,
      "toĠtheirĠ": 6707,
      "provinc": 6708,
      "HouseĠofĠ": 6709,
      "fashi": 6710,
      "ativesĠ": 6711,
      "AcademyĠ": 6712,
      "far": 6713,
      "wav": 6714,
      "number": 6715,
      "weaponsĠ": 6716,
      "statementĠ": 6717,
      "band": 6718,
      "swe": 6719,
      "Byz": 6720,
      "ubb": 6721,
      "notedĠthatĠ": 6722,
      "99Ġ": 6723,
      "sti": 6724,
      "udĠ": 6725,
      "inessĠ": 6726,
      "opinionĠ": 6727,
      "peaceĠ": 6728,
      "Gro": 6729,
      "tureĠofĠ": 6730,
      "lockĠ": 6731,
      "leadershipĠ": 6732,
      "FinalĠFantasyĠ": 6733,
      "VietnamĠ": 6734,
      "ileĠtheĠ": 6735,
      ".ĠTheĠtwoĠ": 6736,
      "collectedĠ": 6737,
      "kindĠofĠ": 6738,
      "LightĠ": 6739,
      "diseaseĠ": 6740,
      "upgrad": 6741,
      "duringĠhisĠ": 6742,
      "heartĠ": 6743,
      ".ĠTheĠfollowingĠ": 6744,
      "earliestĠ": 6745,
      "lasĠ": 6746,
      "ĠJ": 6747,
      "paintingĠ": 6748,
      "\"Ġ,ĠtheĠ": 6749,
      "settlementĠ": 6750,
      "Ari": 6751,
      "dar": 6752,
      "thatĠyearĠ": 6753,
      "servedĠasĠ": 6754,
      "dropĠ": 6755,
      "shootingĠ": 6756,
      "Wind": 6757,
      "presenceĠ": 6758,
      "creditedĠ": 6759,
      "yellowĠ": 6760,
      "Independ": 6761,
      "simpleĠ": 6762,
      "asticĠ": 6763,
      "wasĠfirstĠ": 6764,
      "GeorgiaĠ": 6765,
      "itchĠ": 6766,
      "asser": 6767,
      ".ĠUp": 6768,
      "southwestĠ": 6769,
      "capturedĠ": 6770,
      "nersĠ": 6771,
      "tend": 6772,
      "establishĠ": 6773,
      "25Ġ,Ġ": 6774,
      "ingĠitsĠ": 6775,
      "uleĠ": 6776,
      "earch": 6777,
      ".ĠWeĠ": 6778,
      "venu": 6779,
      "OttomanĠ": 6780,
      "0sĠandĠ": 6781,
      "fareĠ": 6782,
      "och": 6783,
      "episodesĠ": 6784,
      "ographerĠ": 6785,
      "\"Ġ.ĠHeĠ": 6786,
      "directionĠ": 6787,
      "semiĠ@-@Ġ": 6788,
      "versionsĠ": 6789,
      "Ġ=Ġ=ĠReceptionĠ=Ġ=Ċ": 6790,
      "ingĠinĠtheĠ": 6791,
      "stret": 6792,
      "timeĠ,ĠtheĠ": 6793,
      "hiĠ": 6794,
      "glob": 6795,
      "ofĠthisĠ": 6796,
      "2006Ġ,Ġ": 6797,
      "alternativeĠ": 6798,
      "bonĠ": 6799,
      "toĠanĠ": 6800,
      "WilliamsĠ": 6801,
      "Mir": 6802,
      "capacityĠ": 6803,
      "lapĠ": 6804,
      "textĠ": 6805,
      "gal": 6806,
      "SteveĠ": 6807,
      "inumĠ": 6808,
      "22Ġ,Ġ": 6809,
      "exclu": 6810,
      "program": 6811,
      "10Ġ@,@Ġ000Ġ": 6812,
      "alĠ,ĠandĠ": 6813,
      "Ġ,ĠandĠtheĠ": 6814,
      "eĠ,ĠwhoĠ": 6815,
      "longĠtonsĠ": 6816,
      "protectionĠ": 6817,
      "deathĠ,Ġ": 6818,
      "alĠofĠtheĠ": 6819,
      "86Ġ": 6820,
      ",ĠS": 6821,
      "agonĠ": 6822,
      "enderĠ": 6823,
      "psych": 6824,
      "81Ġ": 6825,
      "aĠisĠ": 6826,
      "Ti": 6827,
      "dailyĠ": 6828,
      "eckĠ": 6829,
      "wardsĠ,Ġ": 6830,
      "79Ġ": 6831,
      "includeĠtheĠ": 6832,
      "Albu": 6833,
      "invol": 6834,
      "rianĠ": 6835,
      "thatĠwereĠ": 6836,
      "entryĠ": 6837,
      "attleĠ": 6838,
      "tionsĠofĠtheĠ": 6839,
      "strength": 6840,
      "tz": 6841,
      "performancesĠ": 6842,
      "SenateĠ": 6843,
      "phĠ": 6844,
      ",ĠL": 6845,
      "trib": 6846,
      ",ĠB": 6847,
      "actorsĠ": 6848,
      "replacedĠbyĠ": 6849,
      "reserveĠ": 6850,
      "edgeĠ": 6851,
      "operatingĠ": 6852,
      "rementĠ": 6853,
      "susĠ": 6854,
      "abs": 6855,
      "tailĠ": 6856,
      "ImperialĠ": 6857,
      "atedĠwithĠ": 6858,
      "lettersĠ": 6859,
      "aer": 6860,
      "preserv": 6861,
      "2ĠandĠ": 6862,
      "auti": 6863,
      ".ĠAddi": 6864,
      "inĠtheĠworldĠ": 6865,
      "achus": 6866,
      "teen": 6867,
      "outsideĠtheĠ": 6868,
      ".ĠAlsoĠ": 6869,
      "neutr": 6870,
      "dor": 6871,
      "paperĠ": 6872,
      "rolesĠ": 6873,
      "wayĠtoĠ": 6874,
      "ColumbiaĠ": 6875,
      "coupl": 6876,
      "transferredĠ": 6877,
      "wasĠmadeĠ": 6878,
      "pperĠ": 6879,
      "planeĠ": 6880,
      "CĠ)Ġ": 6881,
      "1997Ġ": 6882,
      "AR": 6883,
      "ageĠandĠ": 6884,
      "specul": 6885,
      "27Ġ,Ġ": 6886,
      "strengthĠ": 6887,
      "rareĠ": 6888,
      "innerĠ": 6889,
      "asĠhisĠ": 6890,
      "iltonĠ": 6891,
      "councilĠ": 6892,
      "ryingĠ": 6893,
      "coupleĠ": 6894,
      "evalĠ": 6895,
      "groundsĠ": 6896,
      "resour": 6897,
      "ElizabethĠ": 6898,
      "CastleĠ": 6899,
      "barĠ": 6900,
      "trail": 6901,
      "lossĠofĠ": 6902,
      "WalterĠ": 6903,
      "decis": 6904,
      "?Ġ": 6905,
      "ingerĠ": 6906,
      "storeĠ": 6907,
      "aĠnumberĠofĠ": 6908,
      "officersĠ": 6909,
      "ingĠhimĠ": 6910,
      "icityĠ": 6911,
      "load": 6912,
      "attemptsĠtoĠ": 6913,
      "platformĠ": 6914,
      "\"ĠB": 6915,
      "lineĠ,Ġ": 6916,
      "ShowĠ": 6917,
      "watchĠ": 6918,
      "Prem": 6919,
      "isĠandĠ": 6920,
      "conqu": 6921,
      "turningĠ": 6922,
      "exerc": 6923,
      "perhapsĠ": 6924,
      "changedĠ": 6925,
      "vehiclesĠ": 6926,
      "Wood": 6927,
      "desĠ": 6928,
      "Liber": 6929,
      "athanĠ": 6930,
      "dryĠ": 6931,
      "photograph": 6932,
      "Å¡": 6933,
      "aĠlargeĠ": 6934,
      "inĠJuneĠ": 6935,
      "essi": 6936,
      "opsĠ": 6937,
      "Sher": 6938,
      "dneyĠ": 6939,
      "onĠFebruaryĠ": 6940,
      "ockedĠ": 6941,
      "extremelyĠ": 6942,
      "Kir": 6943,
      "isherĠ": 6944,
      "delay": 6945,
      "vedĠ": 6946,
      "sideĠofĠ": 6947,
      "wiseĠ": 6948,
      "surpris": 6949,
      "Az": 6950,
      "DailyĠ": 6951,
      "sawĠtheĠ": 6952,
      "projec": 6953,
      "120Ġ": 6954,
      "ConferenceĠ": 6955,
      "episodeĠwasĠ": 6956,
      "olutionaryĠ": 6957,
      "kno": 6958,
      "ousĠandĠ": 6959,
      "FieldĠ": 6960,
      "adultĠ": 6961,
      "she": 6962,
      "cityĠ'sĠ": 6963,
      "EarlĠ": 6964,
      "listĠofĠ": 6965,
      "holdingĠ": 6966,
      "26Ġ,Ġ": 6967,
      "ofĠthemĠ": 6968,
      "suppos": 6969,
      "guitar": 6970,
      "supportedĠ": 6971,
      "eriesĠ": 6972,
      "integr": 6973,
      "torĠ,Ġ": 6974,
      "stateĠofĠ": 6975,
      "rum": 6976,
      "hortlyĠ": 6977,
      "domesticĠ": 6978,
      "ElĠ": 6979,
      "Hy": 6980,
      ".Ġ'Ġ": 6981,
      "ationĠwithĠ": 6982,
      "phoonĠ": 6983,
      "ogen": 6984,
      "launchĠ": 6985,
      "68Ġ": 6986,
      "Kent": 6987,
      "pati": 6988,
      "Serb": 6989,
      "8thĠ": 6990,
      "anythingĠ": 6991,
      "24Ġ,Ġ": 6992,
      "61Ġ": 6993,
      "raidĠ": 6994,
      "backĠtoĠtheĠ": 6995,
      "Wi": 6996,
      "bear": 6997,
      "committeeĠ": 6998,
      "effortsĠ": 6999,
      "oardĠ": 7000,
      "laneĠ": 7001,
      "yĠtoĠ": 7002,
      "@-@ĠlikeĠ": 7003,
      "woo": 7004,
      "@-@ĠinĠ@-@Ġ": 7005,
      "agentĠ": 7006,
      "compris": 7007,
      "albumsĠ": 7008,
      "steelĠ": 7009,
      "Super": 7010,
      "crowdĠ": 7011,
      "59Ġ": 7012,
      "63Ġ": 7013,
      "Bus": 7014,
      ",ĠtoĠ": 7015,
      "timeĠtheĠ": 7016,
      "Mid": 7017,
      "awardsĠ": 7018,
      "causingĠ": 7019,
      "sĠwithĠ": 7020,
      "graduallyĠ": 7021,
      "adr": 7022,
      "StadiumĠ": 7023,
      "1995Ġ": 7024,
      "methodĠ": 7025,
      "JonesĠ": 7026,
      "easilyĠ": 7027,
      ".ĠFollowingĠtheĠ": 7028,
      "ceremonyĠ": 7029,
      "andĠR": 7030,
      "uckyĠ": 7031,
      "siderĠ": 7032,
      "Confed": 7033,
      "ĠV": 7034,
      "religionĠ": 7035,
      "700Ġ": 7036,
      "Ever": 7037,
      "ellyĠ": 7038,
      "collectionĠ": 7039,
      "floorĠ": 7040,
      "edĠtheĠsongĠ": 7041,
      "udd": 7042,
      "Town": 7043,
      "openedĠ": 7044,
      "Cel": 7045,
      "aĠ,ĠtheĠ": 7046,
      "earth": 7047,
      "becauseĠofĠtheĠ": 7048,
      "SupremeĠ": 7049,
      "Tam": 7050,
      "thatĠofĠ": 7051,
      "Stra": 7052,
      "taxĠ": 7053,
      "suggestedĠthatĠ": 7054,
      "var": 7055,
      "rog": 7056,
      "esĠ,ĠincludingĠ": 7057,
      "pieceĠ": 7058,
      "aporeĠ": 7059,
      "Week": 7060,
      "Hit": 7061,
      "ĠU": 7062,
      "PortĠ": 7063,
      "peĠ": 7064,
      ";ĠitĠ": 7065,
      "visualĠ": 7066,
      "stadiumĠ": 7067,
      "ChartĠ": 7068,
      "scientificĠ": 7069,
      "twentyĠ@-@Ġ": 7070,
      "agingĠ": 7071,
      ".Ġ\"ĠS": 7072,
      "94Ġ": 7073,
      "whyĠ": 7074,
      ")ĠwasĠ": 7075,
      "deckĠ": 7076,
      "major": 7077,
      "Commun": 7078,
      "conductedĠ": 7079,
      "fear": 7080,
      "deg": 7081,
      "treatmentĠ": 7082,
      "inĠFebruaryĠ": 7083,
      "ĠAtĠ": 7084,
      "figur": 7085,
      "associatedĠwithĠ": 7086,
      "systemsĠ": 7087,
      "Kn": 7088,
      "asĠofĠ": 7089,
      "emor": 7090,
      "thatĠheĠwasĠ": 7091,
      "advoc": 7092,
      "partsĠofĠtheĠ": 7093,
      "ginĠ": 7094,
      "insist": 7095,
      "elĠ'sĠ": 7096,
      "branchĠ": 7097,
      "coldĠ": 7098,
      "shel": 7099,
      "armedĠ": 7100,
      "accompani": 7101,
      "ableĠ,Ġ": 7102,
      "Nic": 7103,
      "consul": 7104,
      "burnĠ": 7105,
      "garyĠ": 7106,
      "path": 7107,
      "IĠwasĠ": 7108,
      "betweenĠtheĠtwoĠ": 7109,
      "sentĠtoĠ": 7110,
      "Hu": 7111,
      "command": 7112,
      "DisneyĠ": 7113,
      "ament": 7114,
      "Rober": 7115,
      "banĠ": 7116,
      "Song": 7117,
      "titlesĠ": 7118,
      "ĠWithĠ": 7119,
      "enoughĠtoĠ": 7120,
      "Mas": 7121,
      "Out": 7122,
      "gettingĠ": 7123,
      "cinem": 7124,
      "equival": 7125,
      "WayĠ": 7126,
      "ras": 7127,
      "inĠlateĠ": 7128,
      "lip": 7129,
      "spectiveĠ": 7130,
      "LeeĠ": 7131,
      "Tun": 7132,
      "odg": 7133,
      "hospitalĠ": 7134,
      "Medi": 7135,
      "strikeĠ": 7136,
      "aboveĠtheĠ": 7137,
      "gath": 7138,
      "Ġ,ĠandĠwasĠ": 7139,
      "suitĠ": 7140,
      "allĠofĠtheĠ": 7141,
      "ledĠtoĠtheĠ": 7142,
      "bitsĠ": 7143,
      "increasingĠ": 7144,
      "fieldsĠ": 7145,
      "coastalĠ": 7146,
      "TopĠ": 7147,
      "AS": 7148,
      "ingĠthatĠtheĠ": 7149,
      "IslandsĠ": 7150,
      "hin": 7151,
      ".ĠTheĠgameĠ": 7152,
      "flag": 7153,
      "advent": 7154,
      "boughtĠ": 7155,
      "conferenceĠ": 7156,
      ".ĠInĠ199": 7157,
      "railĠ": 7158,
      ",ĠhoweverĠ,Ġ": 7159,
      "aliz": 7160,
      "aissanceĠ": 7161,
      "Hos": 7162,
      "Wrest": 7163,
      "hors": 7164,
      "valueĠ": 7165,
      "akesĠ": 7166,
      "entiallyĠ": 7167,
      "NewĠYor": 7168,
      "AC": 7169,
      "selectionĠ": 7170,
      "preadĠ": 7171,
      ",ĠalthoughĠ": 7172,
      "GovernorĠ": 7173,
      "Bru": 7174,
      "ÅĤ": 7175,
      "withĠitsĠ": 7176,
      "controvers": 7177,
      "mphĠ)Ġ": 7178,
      "mountedĠ": 7179,
      "sourcesĠ": 7180,
      "(ĠM": 7181,
      "ounderĠ": 7182,
      "Pot": 7183,
      "westwardĠ": 7184,
      "Pre": 7185,
      "oli": 7186,
      "mountainĠ": 7187,
      "univer": 7188,
      "AdmiralĠ": 7189,
      "techniqu": 7190,
      "88Ġ": 7191,
      ".ĠAndĠ": 7192,
      "pric": 7193,
      "reliefĠ": 7194,
      "capableĠ": 7195,
      "BrianĠ": 7196,
      "releaseĠofĠ": 7197,
      "artistsĠ": 7198,
      "actualĠ": 7199,
      "Hot": 7200,
      "Kur": 7201,
      "circum": 7202,
      "inĠ\"Ġ": 7203,
      "freewayĠ": 7204,
      "whenĠtheyĠ": 7205,
      "fortĠ": 7206,
      "threaten": 7207,
      "JeanĠ": 7208,
      "owĠ,Ġ": 7209,
      "expressedĠ": 7210,
      "FranciscoĠ": 7211,
      "Tour": 7212,
      "aĠtoĠ": 7213,
      "iversaryĠ": 7214,
      "folkĠ": 7215,
      "ousĠ,Ġ": 7216,
      "\"Ġ,ĠbutĠ": 7217,
      "edĠbyĠhisĠ": 7218,
      "saidĠthatĠtheĠ": 7219,
      "23Ġ,Ġ": 7220,
      "She": 7221,
      "ĠByĠ": 7222,
      "lifeĠ=Ġ=Ċ": 7223,
      "popularityĠ": 7224,
      "carriedĠoutĠ": 7225,
      "memor": 7226,
      "springĠ": 7227,
      "visitĠ": 7228,
      "anceĠtoĠ": 7229,
      "prisonĠ": 7230,
      "ddenĠ": 7231,
      "itesĠ": 7232,
      "structuresĠ": 7233,
      "69Ġ": 7234,
      "wides": 7235,
      "liesĠ": 7236,
      "dones": 7237,
      "suppliesĠ": 7238,
      "eyeĠ": 7239,
      "struggl": 7240,
      "hillĠ": 7241,
      "ItalyĠ": 7242,
      "74Ġ": 7243,
      "heĠwouldĠ": 7244,
      "locationsĠ": 7245,
      "appropri": 7246,
      "assistantĠ": 7247,
      "cann": 7248,
      "amberĠ": 7249,
      "entranceĠ": 7250,
      "existĠ": 7251,
      ".ĠInĠhisĠ": 7252,
      "reportsĠ": 7253,
      "Cir": 7254,
      "Ban": 7255,
      "onĠ1Ġ": 7256,
      "isĠinĠ": 7257,
      "orĠaĠ": 7258,
      "upĠ,Ġ": 7259,
      "personnelĠ": 7260,
      "28Ġ,Ġ": 7261,
      "akerĠ": 7262,
      "mannĠ": 7263,
      "ofĠallĠ": 7264,
      "terĠ,Ġ": 7265,
      "HollywoodĠ": 7266,
      "eanwhileĠ,Ġ": 7267,
      "facedĠ": 7268,
      ".comĠ": 7269,
      "Dor": 7270,
      "Ken": 7271,
      "Jenn": 7272,
      "reĠ,Ġ": 7273,
      "ticĠ,Ġ": 7274,
      "suffer": 7275,
      "NewsĠ": 7276,
      "presentsĠ": 7277,
      "ĠWhileĠ": 7278,
      "mustĠbeĠ": 7279,
      "arkedĠ": 7280,
      "uresĠ,Ġ": 7281,
      ";ĠhoweverĠ,Ġ": 7282,
      "compon": 7283,
      "candid": 7284,
      "autom": 7285,
      "Ty": 7286,
      ".ĠAsĠofĠ": 7287,
      "But": 7288,
      "steamĠ": 7289,
      "distinctĠ": 7290,
      "73Ġ": 7291,
      "sip": 7292,
      "sufficientĠ": 7293,
      "burghĠ": 7294,
      ".ĠJohnĠ": 7295,
      "inĠtheĠsecondĠ": 7296,
      "hadĠtoĠbeĠ": 7297,
      "OhioĠ": 7298,
      "koĠ": 7299,
      "inĠ16": 7300,
      "exampleĠ": 7301,
      "LouisĠ": 7302,
      "89Ġ": 7303,
      "kesĠ": 7304,
      "lakeĠ": 7305,
      "ristĠ": 7306,
      "answ": 7307,
      "âĢĿ": 7308,
      "Roll": 7309,
      "ston": 7310,
      "(Ġ198": 7311,
      "saidĠtheĠ": 7312,
      ".ĠInsteadĠ": 7313,
      "awardedĠtheĠ": 7314,
      "etĠ,Ġ": 7315,
      "oteĠ": 7316,
      "commod": 7317,
      "titudeĠ": 7318,
      "episodeĠ\"Ġ": 7319,
      "SydneyĠ": 7320,
      "wealthĠ": 7321,
      "NintendoĠ": 7322,
      "spotĠ": 7323,
      "controversi": 7324,
      "recogniz": 7325,
      "system": 7326,
      "slowlyĠ": 7327,
      "Lis": 7328,
      "onlineĠ": 7329,
      "liber": 7330,
      ".ĠDueĠ": 7331,
      "bring": 7332,
      "disturb": 7333,
      "occurr": 7334,
      "sat": 7335,
      "Indones": 7336,
      "motionĠ": 7337,
      "child": 7338,
      "Shak": 7339,
      "âĪĴĠ": 7340,
      "ble": 7341,
      "shoreĠ": 7342,
      "theirĠfirstĠ": 7343,
      "layĠ": 7344,
      "belong": 7345,
      "GoldenĠ": 7346,
      "atenĠ": 7347,
      "raneanĠ": 7348,
      "Ġ=Ġ=ĠEarlyĠ": 7349,
      "mĠandĠ": 7350,
      "diĠ": 7351,
      "visitedĠ": 7352,
      "museumĠ": 7353,
      "sendĠ": 7354,
      "onlyĠoneĠ": 7355,
      "momentĠ": 7356,
      "93Ġ": 7357,
      "stro": 7358,
      "Ġ=Ġ=ĠD": 7359,
      "responsibleĠforĠ": 7360,
      "fair": 7361,
      "ledgeĠ": 7362,
      "secretĠ": 7363,
      "salesĠ": 7364,
      "RĠ&ĠB": 7365,
      "EmperorĠ": 7366,
      "Gall": 7367,
      "âĢľ": 7368,
      "showĠ'sĠ": 7369,
      "projectsĠ": 7370,
      "black": 7371,
      "Mun": 7372,
      "islandsĠ": 7373,
      "agaĠ": 7374,
      "Net": 7375,
      "llĠ": 7376,
      "FestivalĠ": 7377,
      "roofĠ": 7378,
      "ownerĠ": 7379,
      "trad": 7380,
      "wasĠlaterĠ": 7381,
      "thatĠareĠ": 7382,
      "someoneĠ": 7383,
      "perfectĠ": 7384,
      "setĠupĠ": 7385,
      "typicalĠ": 7386,
      "HMSĠ": 7387,
      "earn": 7388,
      "yĠ,ĠbutĠ": 7389,
      "NavalĠ": 7390,
      "escapeĠ": 7391,
      "NF": 7392,
      "Sm": 7393,
      "Tel": 7394,
      ".ĠTheĠalbumĠ": 7395,
      "ook": 7396,
      "[Ġ...Ġ": 7397,
      "Ly": 7398,
      "thos": 7399,
      "baseballĠ": 7400,
      "CapeĠ": 7401,
      "restaur": 7402,
      "84Ġ": 7403,
      "antic": 7404,
      "ofĠC": 7405,
      "tribu": 7406,
      "effĠ": 7407,
      "refus": 7408,
      "casualtiesĠ": 7409,
      "WilsonĠ": 7410,
      "ynast": 7411,
      "Lor": 7412,
      ".ĠY": 7413,
      "Lincol": 7414,
      "beingĠtheĠ": 7415,
      "clesĠ": 7416,
      "dogĠ": 7417,
      "attemptĠ": 7418,
      "BookĠ": 7419,
      "arianĠ": 7420,
      "deem": 7421,
      "residentialĠ": 7422,
      "SquareĠ": 7423,
      "bottomĠ": 7424,
      "gamesĠ,Ġ": 7425,
      "headsĠ": 7426,
      "PublicĠ": 7427,
      "milesĠ": 7428,
      ".ĠAmongĠ": 7429,
      "Jord": 7430,
      "LongĠ": 7431,
      "doorĠ": 7432,
      "resultĠ,Ġ": 7433,
      "extensionĠ": 7434,
      "borneĠ": 7435,
      ".ĠEx": 7436,
      "considerableĠ": 7437,
      "toĠbeĠtheĠ": 7438,
      "98Ġ": 7439,
      "ratesĠ": 7440,
      ".ĠThreeĠ": 7441,
      "temp": 7442,
      "distric": 7443,
      "believedĠthatĠ": 7444,
      "effortĠ": 7445,
      "wantĠ": 7446,
      "asĠ\"ĠaĠ": 7447,
      "newspap": 7448,
      "ingĠonĠ": 7449,
      "wasĠgivenĠ": 7450,
      "ellaĠ": 7451,
      ".ĠOverĠ": 7452,
      "recogni": 7453,
      ".ĠPro": 7454,
      "!Ġ\"Ġ": 7455,
      "Bos": 7456,
      "theasternĠ": 7457,
      "specificallyĠ": 7458,
      "ersĠareĠ": 7459,
      "imageĠ": 7460,
      "teamĠ'sĠ": 7461,
      "breedingĠ": 7462,
      "speciesĠofĠ": 7463,
      "identifi": 7464,
      "1996Ġ": 7465,
      "tionĠofĠaĠ": 7466,
      "everythingĠ": 7467,
      "Ren": 7468,
      "Norwe": 7469,
      "Nether": 7470,
      "ÄĩĠ": 7471,
      "failureĠ": 7472,
      "SSĠ": 7473,
      "citiesĠ": 7474,
      "zenĠ": 7475,
      "literaryĠ": 7476,
      "Under": 7477,
      "withĠtheirĠ": 7478,
      "matchĠ,Ġ": 7479,
      "supportingĠ": 7480,
      "basicĠ": 7481,
      "insteadĠofĠ": 7482,
      "battleshi": 7483,
      "TaylorĠ": 7484,
      "ironĠ": 7485,
      "Ġ=Ġ=Ġ=Ġ=Ċ": 7486,
      "compositionĠ": 7487,
      "institu": 7488,
      "wouldĠhaveĠbeenĠ": 7489,
      ")ĠtoĠ": 7490,
      "organizedĠ": 7491,
      "asksĠ": 7492,
      "interviewĠ": 7493,
      "ettsĠ": 7494,
      "colorĠ": 7495,
      "gover": 7496,
      "stic": 7497,
      "openedĠinĠ": 7498,
      "connectionĠ": 7499,
      "degreeĠ": 7500,
      "coĠ": 7501,
      "1994Ġ": 7502,
      "permanentĠ": 7503,
      "Gord": 7504,
      "ple": 7505,
      ".ĠSim": 7506,
      "directedĠ": 7507,
      "labelĠ": 7508,
      ")Ġ=Ġ=Ġ=Ċ": 7509,
      "tellĠ": 7510,
      "roseĠ": 7511,
      "anningĠ": 7512,
      "\"Ġ,ĠaĠ": 7513,
      "Magaz": 7514,
      "widespreadĠ": 7515,
      "Common": 7516,
      "thousandsĠ": 7517,
      "ovĠ": 7518,
      "hadĠnoĠ": 7519,
      "replacementĠ": 7520,
      "Sand": 7521,
      "isĠtoĠ": 7522,
      "aĠ,ĠaĠ": 7523,
      "thoseĠwhoĠ": 7524,
      "71Ġ": 7525,
      "FI": 7526,
      "recommend": 7527,
      "tĠ(Ġ": 7528,
      "ichĠ,Ġ": 7529,
      "ho": 7530,
      "olsĠ": 7531,
      "tsĠtheĠ": 7532,
      "proceed": 7533,
      "IVĠ": 7534,
      "hang": 7535,
      "PAĠ": 7536,
      "tionedĠ": 7537,
      "eafterĠ": 7538,
      "ellerĠ": 7539,
      "titud": 7540,
      "missedĠ": 7541,
      "historicĠ": 7542,
      "Turk": 7543,
      "29Ġ,Ġ": 7544,
      "eag": 7545,
      "Chap": 7546,
      "edĠtheĠfirstĠ": 7547,
      "orderedĠ": 7548,
      "AssemblyĠ": 7549,
      "thatĠ,Ġ": 7550,
      "PlotĠ": 7551,
      "lit": 7552,
      "opherĠ": 7553,
      "Lind": 7554,
      "CountyĠ,Ġ": 7555,
      "roughoutĠ": 7556,
      "inityĠ": 7557,
      "inher": 7558,
      "identifiedĠ": 7559,
      "reachingĠ": 7560,
      "Lo": 7561,
      "pet": 7562,
      "regularlyĠ": 7563,
      "combinedĠ": 7564,
      "superi": 7565,
      "oldestĠ": 7566,
      "onder": 7567,
      "notĠonlyĠ": 7568,
      "book": 7569,
      "interestĠinĠ": 7570,
      "carriedĠ": 7571,
      "Illin": 7572,
      "SimpsonsĠ": 7573,
      "aqu": 7574,
      "missingĠ": 7575,
      "asĠtoĠ": 7576,
      "acknow": 7577,
      "ordersĠ": 7578,
      "Kin": 7579,
      "involvedĠinĠ": 7580,
      "Es": 7581,
      "aspectsĠ": 7582,
      "designedĠtoĠ": 7583,
      "containĠ": 7584,
      "Orig": 7585,
      "ruralĠ": 7586,
      "umber": 7587,
      "DistrictĠ": 7588,
      "CambridgeĠ": 7589,
      "Adam": 7590,
      "1Ġ@.@Ġ5Ġ": 7591,
      "preced": 7592,
      "cannotĠ": 7593,
      "97Ġ": 7594,
      "Hou": 7595,
      "alis": 7596,
      "plo": 7597,
      "producersĠ": 7598,
      "gall": 7599,
      "appearancesĠ": 7600,
      "casesĠ": 7601,
      "frag": 7602,
      "touchdownĠ": 7603,
      "stockĠ": 7604,
      "inĠtheĠsameĠ": 7605,
      "blu": 7606,
      "ventionĠ": 7607,
      "problem": 7608,
      "Corpor": 7609,
      "pred": 7610,
      "comple": 7611,
      "alongĠwithĠtheĠ": 7612,
      "aboardĠ": 7613,
      "resembl": 7614,
      "winnerĠ": 7615,
      "induc": 7616,
      "oslav": 7617,
      "examin": 7618,
      "philosoph": 7619,
      "fitĠ": 7620,
      "ate": 7621,
      "confron": 7622,
      "âĢĵĠ0": 7623,
      "SpecialĠ": 7624,
      "VideoĠ": 7625,
      "Will": 7626,
      "storylineĠ": 7627,
      "sampl": 7628,
      "atĠthatĠ": 7629,
      "cons": 7630,
      "aboutĠaĠ": 7631,
      "Ġ=Ġ=ĠBackgroundĠ=Ġ=Ċ": 7632,
      "82Ġ": 7633,
      "choiceĠ": 7634,
      "SRĠ": 7635,
      "eget": 7636,
      "hundredĠ": 7637,
      "stronglyĠ": 7638,
      "Pur": 7639,
      "exchangeĠ": 7640,
      "pressur": 7641,
      ".ĠItĠalsoĠ": 7642,
      "IIĠ,Ġ": 7643,
      "ftedĠ": 7644,
      "toĠtheĠnorthĠ": 7645,
      "lotĠofĠ": 7646,
      "defini": 7647,
      "LifeĠ": 7648,
      "tureĠandĠ": 7649,
      "deleg": 7650,
      "newsĠ": 7651,
      "Ak": 7652,
      "Pop": 7653,
      "bowĠ": 7654,
      "didateĠ": 7655,
      "roll": 7656,
      "authoritiesĠ": 7657,
      "OfficeĠ": 7658,
      "MexicoĠ": 7659,
      "lap": 7660,
      "undĠ": 7661,
      "mountain": 7662,
      "refu": 7663,
      "volunte": 7664,
      "icsĠ,Ġ": 7665,
      "fortun": 7666,
      "ampĠ": 7667,
      "Oreg": 7668,
      "iniĠ": 7669,
      ")ĠisĠaĠ": 7670,
      "retiredĠ": 7671,
      "equivalentĠ": 7672,
      "classicĠ": 7673,
      "givesĠ": 7674,
      "volcan": 7675,
      "Fu": 7676,
      ".ĠPar": 7677,
      "findingĠ": 7678,
      "thoughĠtheĠ": 7679,
      "journeyĠ": 7680,
      "andĠtoĠ": 7681,
      "ridgeĠ": 7682,
      "areĠalsoĠ": 7683,
      ".ĠCom": 7684,
      "ingĠthemĠ": 7685,
      "technologyĠ": 7686,
      "NorwegianĠ": 7687,
      "edĠtoĠhaveĠ": 7688,
      "itsĠfirstĠ": 7689,
      "viewersĠ": 7690,
      "raisedĠ": 7691,
      "RevolutionĠ": 7692,
      "smo": 7693,
      "begunĠ": 7694,
      "ationĠinĠ": 7695,
      "ger": 7696,
      "azz": 7697,
      "Fal": 7698,
      "Nel": 7699,
      "monit": 7700,
      "way": 7701,
      "consequ": 7702,
      "attendedĠ": 7703,
      "Ur": 7704,
      "@-@ĠclassĠ": 7705,
      "munic": 7706,
      "Beyonc": 7707,
      "Merc": 7708,
      "reasonsĠ": 7709,
      "MDĠ": 7710,
      "ÃĹ": 7711,
      "andĠC": 7712,
      "@-@ĠyearĠ": 7713,
      "notic": 7714,
      "4Ġ@,@Ġ": 7715,
      "playedĠaĠ": 7716,
      "introducedĠ": 7717,
      "extraĠ": 7718,
      "eingĠ": 7719,
      "\"ĠH": 7720,
      "estateĠ": 7721,
      "MountainĠ": 7722,
      "San": 7723,
      "\"ĠD": 7724,
      "resent": 7725,
      "timeĠtoĠ": 7726,
      "namedĠtheĠ": 7727,
      "cours": 7728,
      "occasionallyĠ": 7729,
      "83Ġ": 7730,
      "Ni": 7731,
      "visibleĠ": 7732,
      "dropp": 7733,
      "ring": 7734,
      "throw": 7735,
      "SBNĠ": 7736,
      ")ĠinĠ": 7737,
      "short": 7738,
      "onĠtheĠBillboardĠ": 7739,
      "resultedĠinĠ": 7740,
      "gaĠ": 7741,
      "certain": 7742,
      "lossĠ": 7743,
      "qui": 7744,
      "oddĠ": 7745,
      "saveĠ": 7746,
      "missionsĠ": 7747,
      "principalĠ": 7748,
      "industrialĠ": 7749,
      "reinforc": 7750,
      "iciansĠ": 7751,
      "myth": 7752,
      "outerĠ": 7753,
      "hairĠ": 7754,
      "20thĠcenturyĠ": 7755,
      "subjec": 7756,
      "Arab": 7757,
      "wantĠtoĠ": 7758,
      "onym": 7759,
      "freedomĠ": 7760,
      "iterraneanĠ": 7761,
      "MountĠ": 7762,
      "brigadeĠ": 7763,
      "Massachus": 7764,
      "plom": 7765,
      "timateĠ": 7766,
      "yĠ,ĠwhichĠ": 7767,
      "sourc": 7768,
      "sustainedĠ": 7769,
      "parallelĠ": 7770,
      "atmosphereĠ": 7771,
      "mph": 7772,
      "DanielĠ": 7773,
      "agonistĠ": 7774,
      "SummerĠ": 7775,
      "indicatedĠ": 7776,
      "effectivelyĠ": 7777,
      "fast": 7778,
      "beingĠaĠ": 7779,
      "WarĠ,Ġ": 7780,
      "convic": 7781,
      "WeeklyĠ": 7782,
      "cris": 7783,
      "damĠ": 7784,
      "thatĠhadĠ": 7785,
      "typeĠofĠ": 7786,
      "difficultĠtoĠ": 7787,
      "iouslyĠ": 7788,
      "entsĠofĠ": 7789,
      "portionĠofĠtheĠ": 7790,
      "usedĠasĠaĠ": 7791,
      "areaĠ,Ġ": 7792,
      "Doug": 7793,
      "boil": 7794,
      "fanĠ": 7795,
      "hat": 7796,
      ",ĠwithĠtheĠ": 7797,
      "Pow": 7798,
      "hitsĠ": 7799,
      "wasĠoriginallyĠ": 7800,
      "etonĠ": 7801,
      "noteĠ": 7802,
      "Clevel": 7803,
      "bitionĠ": 7804,
      "Corn": 7805,
      "pleas": 7806,
      ";ĠaĠ": 7807,
      "medic": 7808,
      "ingĠ.Ċ": 7809,
      "predec": 7810,
      "historyĠofĠ": 7811,
      "NewĠJerseyĠ": 7812,
      "ItĠ'sĠ": 7813,
      "dissip": 7814,
      "basket": 7815,
      "candidateĠ": 7816,
      ",ĠanĠ": 7817,
      "\"Ġ.ĠInĠ": 7818,
      "micro": 7819,
      "Cart": 7820,
      "insideĠ": 7821,
      "fromĠtheirĠ": 7822,
      "NHLĠ": 7823,
      "bellĠ": 7824,
      "ingĠ,ĠandĠ": 7825,
      "pianoĠ": 7826,
      "drugĠ": 7827,
      "pĠ,Ġ": 7828,
      ".ĠOnceĠ": 7829,
      "andĠherĠ": 7830,
      "majorityĠofĠ": 7831,
      "tiesĠ,Ġ": 7832,
      "uresĠofĠ": 7833,
      "ins": 7834,
      "uponĠtheĠ": 7835,
      "claimedĠthatĠ": 7836,
      "identityĠ": 7837,
      "massiveĠ": 7838,
      "sand": 7839,
      "tisĠ": 7840,
      "MediterraneanĠ": 7841,
      "knotsĠ(Ġ": 7842,
      "outingĠ": 7843,
      "senalĠ": 7844,
      "cameĠtoĠ": 7845,
      "Mari": 7846,
      "shipĠ'sĠ": 7847,
      "1993Ġ": 7848,
      "UTCĠ": 7849,
      "boutĠ": 7850,
      "Ell": 7851,
      "atĠanĠ": 7852,
      "poet": 7853,
      "Electr": 7854,
      "?Ġ\"Ġ": 7855,
      "Vo": 7856,
      "kinsĠ": 7857,
      "assaultĠ": 7858,
      "madeĠhisĠ": 7859,
      "violenceĠ": 7860,
      "pec": 7861,
      "tookĠaĠ": 7862,
      "PhiladelphiaĠ": 7863,
      "andĠre": 7864,
      "istryĠ": 7865,
      "interpre": 7866,
      "speakingĠ": 7867,
      "PeopleĠ": 7868,
      "aĠB": 7869,
      "comesĠ": 7870,
      "Brist": 7871,
      "landfallĠ": 7872,
      "MarylandĠ": 7873,
      "isĠlocatedĠ": 7874,
      "tersĠ,Ġ": 7875,
      "whenĠsheĠ": 7876,
      "whereĠsheĠ": 7877,
      "FĠ@-@Ġ": 7878,
      "becomeĠtheĠ": 7879,
      "MemorialĠ": 7880,
      "Rem": 7881,
      "himĠ,Ġ": 7882,
      "NewĠYorkĠTimesĠ": 7883,
      "shapedĠ": 7884,
      "ampionsĠ": 7885,
      "tripĠ": 7886,
      "downtownĠ": 7887,
      "LikeĠ": 7888,
      "provedĠ": 7889,
      "92Ġ": 7890,
      "okĠ": 7891,
      "AndrewĠ": 7892,
      "namesĠ": 7893,
      "DepartmentĠofĠ": 7894,
      "JusticeĠ": 7895,
      "otoĠ": 7896,
      "comparedĠtoĠ": 7897,
      "aoĠ": 7898,
      "mass": 7899,
      "receivedĠtheĠ": 7900,
      "dĠ'": 7901,
      "blockĠ": 7902,
      "Mot": 7903,
      "andĠK": 7904,
      "inĠEnglandĠ": 7905,
      "considerĠ": 7906,
      "express": 7907,
      "eĠaĠ": 7908,
      "Â°ĠF": 7909,
      "Te": 7910,
      "spot": 7911,
      "91Ġ": 7912,
      "evinĠ": 7913,
      "lifeĠ,Ġ": 7914,
      "athlet": 7915,
      "ofĠtheĠseasonĠ": 7916,
      "Satur": 7917,
      "accommod": 7918,
      "isĠun": 7919,
      "oursĠ": 7920,
      "warningĠ": 7921,
      "honor": 7922,
      "praisedĠ": 7923,
      "DSĠ": 7924,
      "stableĠ": 7925,
      "captureĠ": 7926,
      "cĠ.Ġ": 7927,
      "vul": 7928,
      "A.": 7929,
      "Tar": 7930,
      "han": 7931,
      "remn": 7932,
      "standsĠ": 7933,
      "whenĠitĠ": 7934,
      "killingĠ": 7935,
      "ĠThisĠ": 7936,
      "wish": 7937,
      "toĠtheĠeastĠ": 7938,
      "Ġ=Ġ=ĠProduc": 7939,
      "relationsĠ": 7940,
      "Meg": 7941,
      "defenceĠ": 7942,
      "highĠschoolĠ": 7943,
      "enĠtoĠ": 7944,
      "sever": 7945,
      "operatedĠ": 7946,
      "foundĠtheĠ": 7947,
      "fundsĠ": 7948,
      "technicalĠ": 7949,
      "inhabit": 7950,
      "wroteĠthatĠ": 7951,
      "Sus": 7952,
      "hallĠ": 7953,
      "@,@Ġ000ĠcopiesĠ": 7954,
      "questionĠ": 7955,
      "erĠ\"Ġ": 7956,
      "controlĠofĠtheĠ": 7957,
      "learnedĠ": 7958,
      "seasĠ": 7959,
      "entitledĠ": 7960,
      "neitherĠ": 7961,
      "Cab": 7962,
      "Hay": 7963,
      "(ĠN": 7964,
      "bestĠ@-@Ġ": 7965,
      "goneĠ": 7966,
      "armsĠ": 7967,
      "dividedĠ": 7968,
      "thisĠ,Ġ": 7969,
      "enciesĠ": 7970,
      "fusionĠ": 7971,
      "brothersĠ": 7972,
      "horsesĠ": 7973,
      "Jac": 7974,
      ".ĠOfĠ": 7975,
      "goesĠ": 7976,
      "jur": 7977,
      "Prof": 7978,
      "Malay": 7979,
      "environmentĠ": 7980,
      "erĠ.Ċ": 7981,
      "Argent": 7982,
      "bringĠ": 7983,
      "providesĠ": 7984,
      "racyĠ": 7985,
      "advancedĠ": 7986,
      "Bern": 7987,
      "ofĠA": 7988,
      "legi": 7989,
      "plannedĠ": 7990,
      "renceĠ": 7991,
      "becameĠtheĠfirstĠ": 7992,
      "toĠreachĠ": 7993,
      "inĠthatĠ": 7994,
      "Anim": 7995,
      ".ĠNoĠ": 7996,
      "allowedĠtoĠ": 7997,
      "ugu": 7998,
      "(ĠP": 7999,
      "persu": 8000,
      "tivesĠ": 8001,
      "Ow": 8002,
      "tail": 8003,
      "elevenĠ": 8004,
      "datingĠ": 8005,
      "flatĠ": 8006,
      "ThatĠ": 8007,
      "bishopĠ": 8008,
      "eouslyĠ": 8009,
      "inĠ'Ġ": 8010,
      "job": 8011,
      "wasĠdis": 8012,
      "awar": 8013,
      "thisĠperiodĠ": 8014,
      "involvedĠ": 8015,
      "certifiedĠ": 8016,
      "LondonĠ,Ġ": 8017,
      "Ira": 8018,
      "lotĠ": 8019,
      "zoneĠ": 8020,
      "whenĠaĠ": 8021,
      "vide": 8022,
      "arioĠ": 8023,
      "resistanceĠ": 8024,
      "aĠyearĠ": 8025,
      "accompl": 8026,
      ".Ġ\"ĠA": 8027,
      "greatlyĠ": 8028,
      "Mov": 8029,
      "osisĠ": 8030,
      "icĠandĠ": 8031,
      "BowlĠ": 8032,
      "outsĠ": 8033,
      "ablesĠ": 8034,
      "toĠhelpĠ": 8035,
      "studiesĠ": 8036,
      "motor": 8037,
      "Congres": 8038,
      "livedĠ": 8039,
      "averageĠofĠ": 8040,
      "rhyth": 8041,
      "ior": 8042,
      "sump": 8043,
      "kmĠ/ĠhĠ(Ġ": 8044,
      "incorporatedĠ": 8045,
      "echn": 8046,
      "ceremon": 8047,
      "ieldĠ": 8048,
      "Tru": 8049,
      "sĠandĠaĠ": 8050,
      "wentĠtoĠ": 8051,
      "cameraĠ": 8052,
      "Arthur": 8053,
      "Gold": 8054,
      "YourĠ": 8055,
      "itĠandĠ": 8056,
      "releaseĠ,Ġ": 8057,
      "Sa": 8058,
      "broadĠ": 8059,
      "goal": 8060,
      "ansasĠ": 8061,
      "Cat": 8062,
      "tedlyĠ": 8063,
      "inaĠ,Ġ": 8064,
      "regionalĠ": 8065,
      "highligh": 8066,
      "senseĠofĠ": 8067,
      "Wol": 8068,
      "enessĠ": 8069,
      "sewhereĠ": 8070,
      "governorĠ": 8071,
      "surfac": 8072,
      "maintainĠ": 8073,
      "reportedĠthatĠ": 8074,
      "formula": 8075,
      "franchiseĠ": 8076,
      "receptionĠ": 8077,
      "eyĠ,Ġ": 8078,
      "repair": 8079,
      "00Ġ,Ġ": 8080,
      "animatedĠ": 8081,
      "independenceĠ": 8082,
      "ofĠtheĠYearĠ": 8083,
      "relativeĠ": 8084,
      "careerĠ=Ġ=Ċ": 8085,
      "containingĠ": 8086,
      "Bon": 8087,
      "station": 8088,
      "offersĠ": 8089,
      "enemiesĠ": 8090,
      "BankĠ": 8091,
      "umeĠ": 8092,
      "containedĠ": 8093,
      "SovietĠUnionĠ": 8094,
      "Anth": 8095,
      "IG": 8096,
      "synthes": 8097,
      "temperatureĠ": 8098,
      "Rang": 8099,
      "osp": 8100,
      "onceĠagainĠ": 8101,
      "Pear": 8102,
      "beforeĠbeingĠ": 8103,
      "KongĠ": 8104,
      "sty": 8105,
      "boroughĠ": 8106,
      "improvedĠ": 8107,
      "challengeĠ": 8108,
      "oothĠ": 8109,
      "rollĠ": 8110,
      "inĠsomeĠ": 8111,
      "accid": 8112,
      "absor": 8113,
      "ThirdĠ": 8114,
      "MilitaryĠ": 8115,
      "calcul": 8116,
      "fittedĠ": 8117,
      "ror": 8118,
      "archĠ": 8119,
      "consum": 8120,
      "rab": 8121,
      "kid": 8122,
      "elĠandĠ": 8123,
      "1944Ġ": 8124,
      "facilitiesĠ": 8125,
      "Dal": 8126,
      "atic": 8127,
      "worstĠ": 8128,
      "(ĠaĠ": 8129,
      "heatĠ": 8130,
      "supportersĠ": 8131,
      "erceĠ": 8132,
      "diplom": 8133,
      "aliansĠ": 8134,
      "involvementĠ": 8135,
      "inĠtheĠlateĠ": 8136,
      "controversyĠ": 8137,
      "LadyĠ": 8138,
      "toĠgetĠ": 8139,
      "reviv": 8140,
      "consideredĠtheĠ": 8141,
      "DonaldĠ": 8142,
      "Red": 8143,
      "mac": 8144,
      "Cav": 8145,
      "VanĠ": 8146,
      "bes": 8147,
      "thisĠwasĠ": 8148,
      "ForestĠ": 8149,
      "premiereĠ": 8150,
      "bombĠ": 8151,
      "MarineĠ": 8152,
      "special": 8153,
      "wasĠheldĠ": 8154,
      "concernedĠ": 8155,
      "wood": 8156,
      "pregn": 8157,
      "intelligenceĠ": 8158,
      ")ĠâĢĵĠ": 8159,
      "2005Ġ,Ġ": 8160,
      "accidentĠ": 8161,
      "statedĠthatĠtheĠ": 8162,
      "IsĠ": 8163,
      "ij": 8164,
      "usedĠbyĠ": 8165,
      "raid": 8166,
      "Ġ=Ġ=ĠPlotĠ": 8167,
      "Bridg": 8168,
      "lifeĠandĠ": 8169,
      "fat": 8170,
      "nerĠ,Ġ": 8171,
      "secondĠ@-@Ġ": 8172,
      "occupi": 8173,
      "safetyĠ": 8174,
      "Educ": 8175,
      "womenĠ'sĠ": 8176,
      "Class": 8177,
      "fundingĠ": 8178,
      "Hamp": 8179,
      "Kal": 8180,
      "hadĠanĠ": 8181,
      "responsibilityĠ": 8182,
      "experiencedĠ": 8183,
      "bank": 8184,
      "ationĠ.ĠTheĠ": 8185,
      "includedĠaĠ": 8186,
      "WhatĠ": 8187,
      "AsiaĠ": 8188,
      "iber": 8189,
      "rentĠ": 8190,
      "Freder": 8191,
      "inĠLondonĠ": 8192,
      "aineĠ": 8193,
      "appearedĠ": 8194,
      "edĠonĠaĠ": 8195,
      "agas": 8196,
      "televisionĠseriesĠ": 8197,
      ".ĠCar": 8198,
      "fire": 8199,
      "campusĠ": 8200,
      "patternĠ": 8201,
      "RadioĠ": 8202,
      "leyĠ'sĠ": 8203,
      "roleĠinĠtheĠ": 8204,
      "bann": 8205,
      "uĠ,Ġ": 8206,
      "theĠ\"Ġ": 8207,
      "(ĠR": 8208,
      "Philli": 8209,
      "archae": 8210,
      "classicalĠ": 8211,
      "ould": 8212,
      "mill": 8213,
      "voteĠ": 8214,
      "ofĠ@-@Ġ": 8215,
      "interchangeĠ": 8216,
      "championĠ": 8217,
      "andaĠ": 8218,
      "ishingĠ": 8219,
      "Guardi": 8220,
      "batĠ": 8221,
      "appearanc": 8222,
      "immediateĠ": 8223,
      "Fron": 8224,
      "toĠtheĠwestĠ": 8225,
      "regimentĠ": 8226,
      "complain": 8227,
      "rantĠ": 8228,
      "daysĠlaterĠ": 8229,
      "usedĠinĠtheĠ": 8230,
      "deser": 8231,
      "ArtĠ": 8232,
      "wildĠ": 8233,
      "OtherĠ": 8234,
      "beralĠ": 8235,
      "gan": 8236,
      "alistsĠ": 8237,
      "simpl": 8238,
      "molec": 8239,
      "Tenn": 8240,
      "poor": 8241,
      "inqu": 8242,
      "somewhatĠ": 8243,
      "difficultyĠ": 8244,
      "MadonnaĠ": 8245,
      "tankĠ": 8246,
      "notingĠ": 8247,
      "desireĠ": 8248,
      "Ã±": 8249,
      "ofĠEnglandĠ": 8250,
      "arrangementĠ": 8251,
      "crimeĠ": 8252,
      "startĠofĠtheĠ": 8253,
      ".ĠAccordingĠtoĠtheĠ": 8254,
      "teenthĠ": 8255,
      "completedĠinĠ": 8256,
      "attackedĠ": 8257,
      "sĠ,ĠsuchĠasĠ": 8258,
      "La": 8259,
      "Lev": 8260,
      "cad": 8261,
      "transpor": 8262,
      "hero": 8263,
      "twentyĠ": 8264,
      "conceptĠ": 8265,
      "ER": 8266,
      "objectsĠ": 8267,
      "1945Ġ": 8268,
      "ontoĠtheĠ": 8269,
      "hasĠtheĠ": 8270,
      "atĠtheĠendĠofĠtheĠ": 8271,
      "PolandĠ": 8272,
      "\"ĠisĠ": 8273,
      "entsĠandĠ": 8274,
      "chartsĠ": 8275,
      "anniversaryĠ": 8276,
      "metersĠ(Ġ": 8277,
      "consistsĠofĠ": 8278,
      "bookĠ,Ġ": 8279,
      "RecordingĠ": 8280,
      "witn": 8281,
      "Jeff": 8282,
      "dutyĠ": 8283,
      "acidĠ": 8284,
      "riskĠ": 8285,
      "ofĠtheĠS": 8286,
      "(ĠB": 8287,
      "Color": 8288,
      "Yug": 8289,
      "intercep": 8290,
      "millionĠinĠ": 8291,
      "themselv": 8292,
      "2Ġ@,@Ġ000Ġ": 8293,
      "economyĠ": 8294,
      "drivenĠ": 8295,
      "accountĠ": 8296,
      "messageĠ": 8297,
      "Ġ,Ġ\"Ġ": 8298,
      "musicĠ,Ġ": 8299,
      "complex": 8300,
      "linkĠ": 8301,
      "icialĠ": 8302,
      "scra": 8303,
      "criticis": 8304,
      "kmĠ/ĠhĠ;Ġ": 8305,
      "ĠItĠ": 8306,
      "1990Ġ": 8307,
      "convectionĠ": 8308,
      "Lan": 8309,
      "forĠthisĠ": 8310,
      "hamm": 8311,
      "templeĠ": 8312,
      "Hospit": 8313,
      "CDĠ": 8314,
      "commemor": 8315,
      "internalĠ": 8316,
      "PointĠ": 8317,
      "WelshĠ": 8318,
      "capableĠofĠ": 8319,
      "hea": 8320,
      "1940Ġ": 8321,
      "CriticalĠ": 8322,
      "gro": 8323,
      "erup": 8324,
      "rati": 8325,
      ")ĠandĠtheĠ": 8326,
      "3ĠandĠ": 8327,
      "LiverpoolĠ": 8328,
      "erĠ,ĠandĠ": 8329,
      "hair": 8330,
      "FamilyĠ": 8331,
      "genreĠ": 8332,
      "funĠ": 8333,
      "anyĠotherĠ": 8334,
      "suggestĠ": 8335,
      "Treat": 8336,
      "inetĠ": 8337,
      "atĠhisĠ": 8338,
      "ofĠtheĠfirstĠ": 8339,
      "tonĠ'sĠ": 8340,
      "avoid": 8341,
      "IA": 8342,
      "masterĠ": 8343,
      "onĠ\"Ġ": 8344,
      "conclusionĠ": 8345,
      "fromĠherĠ": 8346,
      "umul": 8347,
      "allowsĠ": 8348,
      "ologyĠ,Ġ": 8349,
      "1942Ġ": 8350,
      ".ĠAfterĠaĠ": 8351,
      ".ĠTheyĠareĠ": 8352,
      "happyĠ": 8353,
      "phen": 8354,
      "ographicĠ": 8355,
      "qualif": 8356,
      "reb": 8357,
      "contestĠ": 8358,
      "withinĠaĠ": 8359,
      ".ĠRob": 8360,
      "showedĠ": 8361,
      "notesĠ": 8362,
      "employe": 8363,
      "immig": 8364,
      ".ĠAdditionallyĠ": 8365,
      "bigg": 8366,
      "itiesĠ,Ġ": 8367,
      "rapidĠ": 8368,
      "documentaryĠ": 8369,
      "AndersonĠ": 8370,
      "inĠfron": 8371,
      "butĠwasĠ": 8372,
      "reshĠ": 8373,
      "longestĠ": 8374,
      "atĠtheĠsameĠ": 8375,
      "manĠandĠ": 8376,
      "singleĠ@-@Ġ": 8377,
      "libraryĠ": 8378,
      "portionĠofĠ": 8379,
      "rub": 8380,
      "hypo": 8381,
      "champion": 8382,
      "DownĠ": 8383,
      "beauti": 8384,
      "regionsĠ": 8385,
      "grantedĠ": 8386,
      "NBAĠ": 8387,
      "declaredĠ": 8388,
      "Yugoslav": 8389,
      "1992Ġ": 8390,
      "fullĠ@-@Ġ": 8391,
      "itageĠ": 8392,
      "ityĠ,Ġ": 8393,
      "poly": 8394,
      ".ĠEvenĠ": 8395,
      "victim": 8396,
      "urrican": 8397,
      "nes": 8398,
      "isĠknownĠ": 8399,
      "functionĠ": 8400,
      "Duk": 8401,
      "kĠ'sĠ": 8402,
      "coordin": 8403,
      "lookedĠ": 8404,
      "Miss": 8405,
      "meanĠ": 8406,
      "topĠofĠtheĠ": 8407,
      "ool": 8408,
      "iĠ(Ġ": 8409,
      "jointĠ": 8410,
      "MexicanĠ": 8411,
      "lob": 8412,
      "realityĠ": 8413,
      "HungarianĠ": 8414,
      "TorontoĠ": 8415,
      "careerĠ,Ġ": 8416,
      "oniaĠ": 8417,
      "arib": 8418,
      "leadersĠ": 8419,
      "navig": 8420,
      ",ĠK": 8421,
      "1Ġ)Ġ": 8422,
      "referenc": 8423,
      "tropicalĠdepressionĠ": 8424,
      "determineĠ": 8425,
      "survivingĠ": 8426,
      "assess": 8427,
      "ScienceĠ": 8428,
      "ScullyĠ": 8429,
      "kingdomĠ": 8430,
      "insec": 8431,
      "trainsĠ": 8432,
      "ĠDesp": 8433,
      "filmingĠ": 8434,
      "implement": 8435,
      "ÃĹĠ": 8436,
      "asĠoneĠofĠtheĠ": 8437,
      "olaĠ": 8438,
      "rideĠ": 8439,
      "feltĠthatĠ": 8440,
      "SundayĠ": 8441,
      "termsĠofĠ": 8442,
      "liqu": 8443,
      "presidentialĠ": 8444,
      "chemicalĠ": 8445,
      "km": 8446,
      "was": 8447,
      "ingĠtoĠtheĠ": 8448,
      "depos": 8449,
      "thoseĠofĠ": 8450,
      "atesĠtheĠ": 8451,
      "carryingĠ": 8452,
      "withĠhimĠ": 8453,
      "mannerĠ": 8454,
      "describesĠ": 8455,
      "discipl": 8456,
      "crossingĠ": 8457,
      "workersĠ": 8458,
      "fromĠitsĠ": 8459,
      "assass": 8460,
      "commissionĠ": 8461,
      "Sub": 8462,
      "Ġ'": 8463,
      ".ĠTheĠnextĠ": 8464,
      "<formula": 8465,
      "speci": 8466,
      "<formula>": 8467,
      "Ey": 8468,
      "atoĠ": 8469,
      "alter": 8470,
      "avingĠ": 8471,
      "KingĠ'sĠ": 8472,
      "birth": 8473,
      "thro": 8474,
      "acter": 8475,
      "onlyĠaĠ": 8476,
      "reĠ(Ġ": 8477,
      "Rap": 8478,
      "castingĠ": 8479,
      "debateĠ": 8480,
      "Brow": 8481,
      "Nar": 8482,
      "citedĠ": 8483,
      "rif": 8484,
      "Clint": 8485,
      "BSĠ": 8486,
      "lun": 8487,
      "soundsĠ": 8488,
      "aganĠ": 8489,
      "umin": 8490,
      "commit": 8491,
      "ci": 8492,
      "heroĠ": 8493,
      "onĠanĠ": 8494,
      "issi": 8495,
      "ineĠandĠ": 8496,
      "typesĠofĠ": 8497,
      "novel": 8498,
      "Les": 8499,
      "orsĠ,Ġ": 8500,
      "rav": 8501,
      "como": 8502,
      "reloc": 8503,
      "takeĠtheĠ": 8504,
      "HomerĠ": 8505,
      "globalĠ": 8506,
      "Hard": 8507,
      "NationsĠ": 8508,
      "accept": 8509,
      "colonialĠ": 8510,
      "HotĠ100Ġ": 8511,
      "giantĠ": 8512,
      "cardĠ": 8513,
      "andĠ\"Ġ": 8514,
      "usedĠonĠ": 8515,
      "ationĠofĠaĠ": 8516,
      "model": 8517,
      ".ĠForĠtheĠ": 8518,
      "preci": 8519,
      "literatureĠ": 8520,
      "GirlĠ": 8521,
      "aftĠ": 8522,
      "edĠintoĠtheĠ": 8523,
      ".ĠShortlyĠ": 8524,
      "inĠC": 8525,
      "PremierĠ": 8526,
      "Are": 8527,
      "Wis": 8528,
      "ayneĠ": 8529,
      "Â°ĠCĠ": 8530,
      "decre": 8531,
      "NormanĠ": 8532,
      "eonĠ": 8533,
      ")ĠisĠ": 8534,
      "weigh": 8535,
      "markedĠ": 8536,
      "actressĠ": 8537,
      "1920": 8538,
      "formalĠ": 8539,
      "launchedĠ": 8540,
      "adoptedĠ": 8541,
      "edĠthatĠ\"Ġ": 8542,
      "solutionĠ": 8543,
      "woodenĠ": 8544,
      "icideĠ": 8545,
      ".ĠWith": 8546,
      "AdamĠ": 8547,
      "devo": 8548,
      "StanleyĠ": 8549,
      "operateĠ": 8550,
      "nur": 8551,
      "obi": 8552,
      "mathem": 8553,
      "revol": 8554,
      "speedĠofĠ": 8555,
      "appli": 8556,
      "Buil": 8557,
      "MulderĠ": 8558,
      "acknowledg": 8559,
      "southĠofĠtheĠ": 8560,
      "constantĠ": 8561,
      "Journ": 8562,
      "tĠofĠaĠ": 8563,
      "miĠ(Ġ": 8564,
      "CroatianĠ": 8565,
      "scal": 8566,
      "Ġ=Ġ=ĠRel": 8567,
      "cornerĠ": 8568,
      "southĠ@-@Ġ": 8569,
      "conce": 8570,
      "pairĠofĠ": 8571,
      "withĠotherĠ": 8572,
      "entersĠ": 8573,
      "Armen": 8574,
      "eighthĠ": 8575,
      "decadeĠ": 8576,
      ".ĠUnderĠ": 8577,
      "hotĠ": 8578,
      "essiveĠ": 8579,
      ",ĠandĠheĠ": 8580,
      "Fe": 8581,
      "SP": 8582,
      "Well": 8583,
      "whichĠwereĠ": 8584,
      "Inv": 8585,
      "process": 8586,
      "ByzantineĠ": 8587,
      "forĠTheĠ": 8588,
      "nickn": 8589,
      "bill": 8590,
      "á»": 8591,
      "alsoĠbeĠ": 8592,
      "songĠwasĠ": 8593,
      "adsĠ": 8594,
      ".ĠBetweenĠ": 8595,
      "demandĠ": 8596,
      "HowardĠ": 8597,
      "ofĠtheĠUnitedĠStatesĠ": 8598,
      "sheĠhadĠ": 8599,
      "ĠFromĠ": 8600,
      "OrderĠ": 8601,
      "narrativeĠ": 8602,
      "put": 8603,
      "illustr": 8604,
      "alco": 8605,
      "ainĠtheĠ": 8606,
      "limĠ": 8607,
      "ott": 8608,
      "hundre": 8609,
      "reason": 8610,
      "otherwiseĠ": 8611,
      "junctionĠ": 8612,
      "Dur": 8613,
      "bleĠ,Ġ": 8614,
      ".ĠInĠthisĠ": 8615,
      "boatsĠ": 8616,
      "formerlyĠ": 8617,
      "skill": 8618,
      "ofĠG": 8619,
      "inĠP": 8620,
      "withĠ\"Ġ": 8621,
      "AustraliaĠ,Ġ": 8622,
      "âĤ": 8623,
      "even": 8624,
      "ationĠforĠtheĠ": 8625,
      "penaltyĠ": 8626,
      "UN": 8627,
      "monĠ": 8628,
      "oftĠ": 8629,
      "anz": 8630,
      "declineĠ": 8631,
      "bassĠ": 8632,
      "DepartmentĠ": 8633,
      "basketballĠ": 8634,
      "DarkĠ": 8635,
      "veget": 8636,
      "eĠ.ĠTheĠ": 8637,
      "whoĠisĠ": 8638,
      "atĠtheĠageĠofĠ": 8639,
      "whenĠheĠwasĠ": 8640,
      "departmentĠ": 8641,
      "'veĠ": 8642,
      "HallĠofĠ": 8643,
      "AlanĠ": 8644,
      "productionĠofĠ": 8645,
      "Lam": 8646,
      "toĠfindĠ": 8647,
      "shellĠ": 8648,
      "onlyĠtheĠ": 8649,
      "canalĠ": 8650,
      "circu": 8651,
      "borĠ": 8652,
      "haw": 8653,
      "excell": 8654,
      "biggestĠ": 8655,
      "31Ġ,Ġ": 8656,
      "TwoĠ": 8657,
      "requiredĠtoĠ": 8658,
      "normallyĠ": 8659,
      "umentalĠ": 8660,
      "ĠAd": 8661,
      "ProjectĠ": 8662,
      "relationshipĠwithĠ": 8663,
      "lb": 8664,
      "knessĠ": 8665,
      "decad": 8666,
      "facilityĠ": 8667,
      "journalistĠ": 8668,
      "cru": 8669,
      "youthĠ": 8670,
      "addĠ": 8671,
      "humansĠ": 8672,
      "createĠaĠ": 8673,
      "thusi": 8674,
      "stepĠ": 8675,
      "shipsĠwereĠ": 8676,
      "dimen": 8677,
      "tryĠ,Ġ": 8678,
      "songĠ'sĠ": 8679,
      "where": 8680,
      "Fair": 8681,
      "accusedĠ": 8682,
      "extend": 8683,
      "landscap": 8684,
      "apparentlyĠ": 8685,
      "BeatlesĠ": 8686,
      "veter": 8687,
      "1991Ġ": 8688,
      "ofĠtheĠgameĠ": 8689,
      "(Ġ197": 8690,
      "MoonĠ": 8691,
      "obl": 8692,
      "followsĠ": 8693,
      "glassĠ": 8694,
      "Leon": 8695,
      "DavisĠ": 8696,
      "sixĠ@-@Ġ": 8697,
      "Bah": 8698,
      "ichaelĠ": 8699,
      "tempor": 8700,
      "creteĠ": 8701,
      "DĠ)Ġ": 8702,
      "itsĠ,Ġ": 8703,
      "lesĠandĠ": 8704,
      "commandĠofĠ": 8705,
      "AĠ@-@Ġ": 8706,
      "Web": 8707,
      "brainĠ": 8708,
      "ChannelĠ": 8709,
      "Prov": 8710,
      "expect": 8711,
      "protest": 8712,
      "Russi": 8713,
      "ertoĠR": 8714,
      "usingĠaĠ": 8715,
      "Cer": 8716,
      "villageĠofĠ": 8717,
      "angleĠ": 8718,
      "provinceĠ": 8719,
      "CrossĠ": 8720,
      "setsĠ": 8721,
      "William": 8722,
      "Fall": 8723,
      "900Ġ": 8724,
      "Yan": 8725,
      "alizedĠ": 8726,
      "tialĠ": 8727,
      "'sĠdeathĠ": 8728,
      ".ĠWhileĠtheĠ": 8729,
      "LibraryĠ": 8730,
      "medievalĠ": 8731,
      "RussiaĠ": 8732,
      "itsĠownĠ": 8733,
      "submarineĠ": 8734,
      "rateĠofĠ": 8735,
      "FameĠ": 8736,
      "Ku": 8737,
      "sessionsĠ": 8738,
      ")Ġ;Ġ": 8739,
      "awayĠfromĠtheĠ": 8740,
      "beliefĠ": 8741,
      "populationĠofĠ": 8742,
      "Game": 8743,
      "IfĠ": 8744,
      "tieĠ": 8745,
      "tedĠforĠ": 8746,
      ".ĠFor": 8747,
      "fort": 8748,
      ".ĠItĠ'sĠ": 8749,
      "thatĠ\"ĠtheĠ": 8750,
      "clin": 8751,
      "Shar": 8752,
      "designedĠbyĠ": 8753,
      "oĠwasĠ": 8754,
      "huntingĠ": 8755,
      "childhoodĠ": 8756,
      "lyĠ,Ġ": 8757,
      "phoneĠ": 8758,
      "providingĠ": 8759,
      "kiĠ": 8760,
      "yearsĠoldĠ": 8761,
      "joinĠtheĠ": 8762,
      "leadingĠtoĠ": 8763,
      "apparentĠ": 8764,
      "medalĠ": 8765,
      "partiesĠ": 8766,
      "southĠofĠ": 8767,
      "cavalryĠ": 8768,
      "withdraw": 8769,
      "priorĠtoĠ": 8770,
      "tropicalĠcycloneĠ": 8771,
      "oneĠofĠhisĠ": 8772,
      "emis": 8773,
      "overĠ,Ġ": 8774,
      "mileĠ(Ġ": 8775,
      "sightĠ": 8776,
      "battingĠ": 8777,
      "growĠ": 8778,
      "Reser": 8779,
      "ĠAccordingĠtoĠ": 8780,
      "hadĠalreadyĠ": 8781,
      "thereafterĠ": 8782,
      "admittedĠ": 8783,
      "forĠseveralĠ": 8784,
      "formallyĠ": 8785,
      "buri": 8786,
      "afterno": 8787,
      "collectionĠofĠ": 8788,
      "Han": 8789,
      "acentĠ": 8790,
      "harmon": 8791,
      "TheatreĠ": 8792,
      "LewisĠ": 8793,
      "align": 8794,
      "outbreakĠ": 8795,
      "traditionĠ": 8796,
      "habitatĠ": 8797,
      "sportationĠ": 8798,
      "appointmentĠ": 8799,
      "Jim": 8800,
      "Sin": 8801,
      "atedĠandĠ": 8802,
      "sheĠisĠ": 8803,
      "losingĠ": 8804,
      "gayĠ": 8805,
      "suitableĠ": 8806,
      "turre": 8807,
      "concernĠ": 8808,
      "Baltim": 8809,
      "Bet": 8810,
      "ãģ": 8811,
      "pitch": 8812,
      "edĠ,ĠtheĠ": 8813,
      "quali": 8814,
      "Alber": 8815,
      "WhenĠ": 8816,
      "emotionalĠ": 8817,
      "egeĠ": 8818,
      "cha": 8819,
      "anyoneĠ": 8820,
      "measuresĠ": 8821,
      "ĠFollowingĠtheĠ": 8822,
      "amĠ,Ġ": 8823,
      "PhilipĠ": 8824,
      "Ġ=Ġ=ĠProductionĠ=Ġ=Ċ": 8825,
      "Alb": 8826,
      ".ĠOnlyĠ": 8827,
      "anĠinterviewĠ": 8828,
      "thousandsĠofĠ": 8829,
      "enthusi": 8830,
      "assi": 8831,
      "feltĠthatĠtheĠ": 8832,
      "resum": 8833,
      "actor": 8834,
      "omaĠ": 8835,
      "producingĠ": 8836,
      "IllinoisĠ": 8837,
      "inallyĠ": 8838,
      "3Ġ:Ġ": 8839,
      "sionalĠ": 8840,
      "differenceĠ": 8841,
      "diagn": 8842,
      "interpret": 8843,
      "crash": 8844,
      "MagazineĠ": 8845,
      "AFĠ": 8846,
      "ylĠ": 8847,
      "withĠtwoĠ": 8848,
      "romanticĠ": 8849,
      "academicĠ": 8850,
      "GoldĠ": 8851,
      "atĠR": 8852,
      "publishedĠbyĠ": 8853,
      "Missou": 8854,
      "sĠ,Ġ\"Ġ": 8855,
      "afterĠbeingĠ": 8856,
      "relatedĠtoĠ": 8857,
      "2Ġ,ĠandĠ": 8858,
      "erryĠ": 8859,
      ".ĠThisĠisĠ": 8860,
      "York": 8861,
      "innes": 8862,
      "theatreĠ": 8863,
      "XboxĠ": 8864,
      "liament": 8865,
      "famili": 8866,
      "South": 8867,
      "climateĠ": 8868,
      "outh": 8869,
      "omen": 8870,
      "FranceĠ,Ġ": 8871,
      "injuriesĠ": 8872,
      "ArthurĠ": 8873,
      "TonyĠ": 8874,
      "mitĠ": 8875,
      "pathĠ": 8876,
      "idesĠ": 8877,
      "AmericaĠ,Ġ": 8878,
      "supportedĠbyĠ": 8879,
      "Gram": 8880,
      "beginningĠofĠtheĠ": 8881,
      "tiesĠofĠ": 8882,
      "andĠM": 8883,
      "appreci": 8884,
      "esĠ,ĠaĠ": 8885,
      "factor": 8886,
      "oughĠ,Ġ": 8887,
      "eor": 8888,
      "ĠUn": 8889,
      "coalĠ": 8890,
      "developmentĠofĠ": 8891,
      "McC": 8892,
      "auc": 8893,
      "nicĠ": 8894,
      "ulĠ": 8895,
      "embleĠ": 8896,
      "istanĠ": 8897,
      "solidĠ": 8898,
      "versionĠofĠ": 8899,
      "northĠ@-@Ġ": 8900,
      "virt": 8901,
      "130Ġ": 8902,
      "aterĠ,Ġ": 8903,
      "atedĠ,Ġ": 8904,
      "chapterĠ": 8905,
      "TurkishĠ": 8906,
      "dog": 8907,
      "tistĠ": 8908,
      "elineĠ": 8909,
      "partlyĠ": 8910,
      "ArtsĠ": 8911,
      "useĠofĠtheĠ": 8912,
      "wroteĠtheĠ": 8913,
      "Domin": 8914,
      "oeĠ": 8915,
      "dishĠ": 8916,
      "rarelyĠ": 8917,
      "UpĠ": 8918,
      "remin": 8919,
      "emergencyĠ": 8920,
      "smanĠ": 8921,
      "chainĠ": 8922,
      "ignor": 8923,
      "partsĠofĠ": 8924,
      "ParkĠ,Ġ": 8925,
      "rightĠtoĠ": 8926,
      "weakĠ": 8927,
      "hopĠ": 8928,
      "isĠthatĠ": 8929,
      "\"ĠofĠ": 8930,
      "inĠtheĠareaĠ": 8931,
      "hadĠpreviouslyĠ": 8932,
      "realiz": 8933,
      "Nich": 8934,
      "statis": 8935,
      "@-@ĠandĠ@-@Ġ": 8936,
      "eauĠ": 8937,
      "ThereĠ": 8938,
      "vehicleĠ": 8939,
      "Sav": 8940,
      "boat": 8941,
      "ĠAnĠ": 8942,
      "everyoneĠ": 8943,
      "andĠP": 8944,
      "phaseĠ": 8945,
      "influentialĠ": 8946,
      "simultan": 8947,
      "Greg": 8948,
      "vac": 8949,
      "ander": 8950,
      "discoveredĠ": 8951,
      "narrow": 8952,
      "ationĠ,ĠandĠ": 8953,
      "filmĠwasĠ": 8954,
      "fighterĠ": 8955,
      "yĠofĠtheĠ": 8956,
      "locomo": 8957,
      "priorĠtoĠtheĠ": 8958,
      "paint": 8959,
      "KentuckyĠ": 8960,
      "aĠinĠ": 8961,
      ".ĠHar": 8962,
      "HolyĠ": 8963,
      "Ġ=Ġ=ĠPlotĠ=Ġ=Ċ": 8964,
      "Ġ=Ġ=ĠDes": 8965,
      "startsĠ": 8966,
      "announcedĠ": 8967,
      "Belg": 8968,
      "oppositeĠ": 8969,
      "FederalĠ": 8970,
      "kel": 8971,
      "yingĠtheĠ": 8972,
      ",ĠwhereĠ": 8973,
      "signingĠ": 8974,
      "1960sĠ": 8975,
      "possibil": 8976,
      "pitchĠ": 8977,
      "believedĠ": 8978,
      "endor": 8979,
      "peac": 8980,
      "historyĠ=Ġ=Ċ": 8981,
      "KoreaĠ": 8982,
      "shad": 8983,
      "assembl": 8984,
      "interiorĠ": 8985,
      ".ĠDav": 8986,
      "1943Ġ": 8987,
      "thatĠheĠhadĠ": 8988,
      "housesĠ": 8989,
      "lowestĠ": 8990,
      "impos": 8991,
      "recur": 8992,
      "Stew": 8993,
      "revealsĠ": 8994,
      "kersĠ": 8995,
      "militi": 8996,
      "Marc": 8997,
      "rescu": 8998,
      "CE": 8999,
      "Lak": 9000,
      "âĢĶĠaĠ": 9001,
      "skinĠ": 9002,
      "NorthĠAmericanĠ": 9003,
      "Heav": 9004,
      "alu": 9005,
      "reportedlyĠ": 9006,
      "schoolsĠ": 9007,
      "Hawai": 9008,
      "satell": 9009,
      "rolĠ": 9010,
      "ressiveĠ": 9011,
      "substantialĠ": 9012,
      "A.Ġ": 9013,
      "pip": 9014,
      "taughtĠ": 9015,
      ".ĠTheĠepisodeĠ": 9016,
      "inĠtheĠUnitedĠKingdomĠ": 9017,
      "ategoryĠ": 9018,
      "xĠ,Ġ": 9019,
      "0Ġ@-@Ġ": 9020,
      "notablyĠ": 9021,
      "fruitĠ": 9022,
      "Sl": 9023,
      "firedĠ": 9024,
      "madeĠitĠ": 9025,
      "aribbe": 9026,
      "thi": 9027,
      "centr": 9028,
      "hotelĠ": 9029,
      "wrec": 9030,
      "eryĠ,Ġ": 9031,
      "clubĠ'sĠ": 9032,
      "inĠwhichĠheĠ": 9033,
      "territoriesĠ": 9034,
      "favoriteĠ": 9035,
      "sitĠ": 9036,
      "business": 9037,
      "Loc": 9038,
      "Niel": 9039,
      "ensu": 9040,
      "wifeĠ,Ġ": 9041,
      "BristolĠ": 9042,
      "Writ": 9043,
      "kinĠ": 9044,
      "wast": 9045,
      "landĠandĠ": 9046,
      "moderateĠ": 9047,
      "byĠhisĠ": 9048,
      "playedĠinĠ": 9049,
      "spirit": 9050,
      "oen": 9051,
      "Greec": 9052,
      "Corp": 9053,
      "aph": 9054,
      "toĠgiveĠ": 9055,
      "ofĠtheĠsameĠ": 9056,
      "servesĠ": 9057,
      "remainedĠinĠ": 9058,
      "lossesĠ": 9059,
      "reviewerĠ": 9060,
      "HamiltonĠ": 9061,
      "Ġ/Ġ": 9062,
      "does": 9063,
      "And": 9064,
      ".ĠForĠexampleĠ,Ġ": 9065,
      "rankĠ": 9066,
      "awaĠ": 9067,
      "dralĠ": 9068,
      "describedĠbyĠ": 9069,
      "improveĠ": 9070,
      "Lyn": 9071,
      "annĠ": 9072,
      "atusĠ": 9073,
      "1970sĠ": 9074,
      "learnĠ": 9075,
      "controlledĠ": 9076,
      "insideĠtheĠ": 9077,
      "110Ġ": 9078,
      "Ol": 9079,
      "eveĠ": 9080,
      "prosec": 9081,
      "awnĠ": 9082,
      "1941Ġ": 9083,
      "oxy": 9084,
      ".ĠUponĠ": 9085,
      "(ĠI": 9086,
      "marksĠ": 9087,
      "developingĠ": 9088,
      "dominantĠ": 9089,
      "sidesĠ": 9090,
      "originĠ": 9091,
      "townĠofĠ": 9092,
      "etaryĠ": 9093,
      "secre": 9094,
      "Thor": 9095,
      "consideredĠaĠ": 9096,
      "passengerĠ": 9097,
      "divisionsĠ": 9098,
      "grownĠ": 9099,
      "rierĠ": 9100,
      "plusĠ": 9101,
      "oomĠ": 9102,
      "heimĠ": 9103,
      "murder": 9104,
      "SAĠ": 9105,
      "pair": 9106,
      "whatĠheĠ": 9107,
      "equalĠ": 9108,
      "flewĠ": 9109,
      "Hav": 9110,
      "@-@ĠfootĠ": 9111,
      "(ĠD": 9112,
      "arrivedĠinĠ": 9113,
      "existenceĠ": 9114,
      "swim": 9115,
      "sĠwasĠ": 9116,
      ".ĠMeanwhileĠ,Ġ": 9117,
      "receivingĠ": 9118,
      "Raj": 9119,
      "WillĠ": 9120,
      "ĠIn": 9121,
      "amin": 9122,
      "@-@ĠofĠ@-@Ġ": 9123,
      "exac": 9124,
      "ityĠandĠ": 9125,
      "upĠtoĠtheĠ": 9126,
      "threeĠyearsĠ": 9127,
      "cycleĠ": 9128,
      "infl": 9129,
      "aran": 9130,
      "uscrip": 9131,
      "byĠanĠ": 9132,
      "SingaporeĠ": 9133,
      "Card": 9134,
      "hanĠ": 9135,
      "nesĠ": 9136,
      "rack": 9137,
      "asĠandĠ": 9138,
      "elseĠ": 9139,
      "secureĠ": 9140,
      ":Ġ\"ĠIĠ": 9141,
      "atĠB": 9142,
      "prohi": 9143,
      "BoyĠ": 9144,
      "sensi": 9145,
      "representativeĠ": 9146,
      "rationsĠ": 9147,
      "spokeĠ": 9148,
      "press": 9149,
      "osaurusĠ": 9150,
      "God": 9151,
      "artis": 9152,
      "icop": 9153,
      "ationĠinĠtheĠ": 9154,
      "sitesĠ": 9155,
      "favour": 9156,
      "wellĠ,Ġ": 9157,
      "teacherĠ": 9158,
      "topp": 9159,
      "ray": 9160,
      ".ĠDi": 9161,
      "mithĠ": 9162,
      "episodeĠofĠtheĠ": 9163,
      "GermansĠ": 9164,
      "bourneĠ": 9165,
      "CategoryĠ": 9166,
      "PressĠ": 9167,
      "uti": 9168,
      "incomeĠ": 9169,
      "emet": 9170,
      "5Ġ@,@Ġ000Ġ": 9171,
      "pher": 9172,
      "rag": 9173,
      "ski": 9174,
      "SpaceĠ": 9175,
      "FrancisĠ": 9176,
      "ninthĠ": 9177,
      "ĠHeĠ": 9178,
      "concernsĠ": 9179,
      "aly": 9180,
      "rivalĠ": 9181,
      "Tig": 9182,
      ".Ġ)Ġ": 9183,
      "PatrickĠ": 9184,
      "partiallyĠ": 9185,
      "ingĠStoneĠ": 9186,
      "beyĠ": 9187,
      "intenseĠ": 9188,
      "defens": 9189,
      "crashĠ": 9190,
      "havingĠbeenĠ": 9191,
[...]
